{"version":"1.0","truncation":null,"padding":null,"added_tokens":[{"id":0,"special":true,"content":"<s>","single_word":false,"lstrip":false,"rstrip":false,"normalized":false},{"id":1,"special":true,"content":"<pad>","single_word":false,"lstrip":false,"rstrip":false,"normalized":false},{"id":2,"special":true,"content":"</s>","single_word":false,"lstrip":false,"rstrip":false,"normalized":false},{"id":3,"special":true,"content":"<unk>","single_word":false,"lstrip":false,"rstrip":false,"normalized":false},{"id":4,"special":true,"content":"<mask>","single_word":false,"lstrip":false,"rstrip":false,"normalized":false}],"normalizer":null,"pre_tokenizer":{"type":"ByteLevel","add_prefix_space":false,"trim_offsets":true},"post_processor":{"type":"ByteLevel","add_prefix_space":true,"trim_offsets":false},"decoder":{"type":"ByteLevel","add_prefix_space":true,"trim_offsets":true},"model":{"dropout":null,"unk_token":null,"continuing_subword_prefix":null,"end_of_word_suffix":null,"fuse_unk":false,"vocab":{"<s>":0,"<pad>":1,"</s>":2,"<unk>":3,"<mask>":4,"!":5,"\"":6,"#":7,"$":8,"%":9,"&":10,"'":11,"(":12,")":13,"*":14,"+":15,",":16,"-":17,".":18,"/":19,"0":20,"1":21,"2":22,"3":23,"4":24,"5":25,"6":26,"7":27,"8":28,"9":29,":":30,";":31,"<":32,"=":33,">":34,"?":35,"@":36,"A":37,"B":38,"C":39,"D":40,"E":41,"F":42,"G":43,"H":44,"I":45,"J":46,"K":47,"L":48,"M":49,"N":50,"O":51,"P":52,"Q":53,"R":54,"S":55,"T":56,"U":57,"V":58,"W":59,"X":60,"Y":61,"Z":62,"[":63,"\\":64,"]":65,"^":66,"_":67,"`":68,"a":69,"b":70,"c":71,"d":72,"e":73,"f":74,"g":75,"h":76,"i":77,"j":78,"k":79,"l":80,"m":81,"n":82,"o":83,"p":84,"q":85,"r":86,"s":87,"t":88,"u":89,"v":90,"w":91,"x":92,"y":93,"z":94,"{":95,"|":96,"}":97,"~":98,"¡":99,"¢":100,"£":101,"¤":102,"¥":103,"¦":104,"§":105,"¨":106,"©":107,"ª":108,"«":109,"¬":110,"®":111,"¯":112,"°":113,"±":114,"²":115,"³":116,"´":117,"µ":118,"¶":119,"·":120,"¸":121,"¹":122,"º":123,"»":124,"¼":125,"½":126,"¾":127,"¿":128,"À":129,"Á":130,"Â":131,"Ã":132,"Ä":133,"Å":134,"Æ":135,"Ç":136,"È":137,"É":138,"Ê":139,"Ë":140,"Ì":141,"Í":142,"Î":143,"Ï":144,"Ð":145,"Ñ":146,"Ò":147,"Ó":148,"Ô":149,"Õ":150,"Ö":151,"×":152,"Ø":153,"Ù":154,"Ú":155,"Û":156,"Ü":157,"Ý":158,"Þ":159,"ß":160,"à":161,"á":162,"â":163,"ã":164,"ä":165,"å":166,"æ":167,"ç":168,"è":169,"é":170,"ê":171,"ë":172,"ì":173,"í":174,"î":175,"ï":176,"ð":177,"ñ":178,"ò":179,"ó":180,"ô":181,"õ":182,"ö":183,"÷":184,"ø":185,"ù":186,"ú":187,"û":188,"ü":189,"ý":190,"þ":191,"ÿ":192,"Ā":193,"ā":194,"Ă":195,"ă":196,"Ą":197,"ą":198,"Ć":199,"ć":200,"Ĉ":201,"ĉ":202,"Ċ":203,"ċ":204,"Č":205,"č":206,"Ď":207,"ď":208,"Đ":209,"đ":210,"Ē":211,"ē":212,"Ĕ":213,"ĕ":214,"Ė":215,"ė":216,"Ę":217,"ę":218,"Ě":219,"ě":220,"Ĝ":221,"ĝ":222,"Ğ":223,"ğ":224,"Ġ":225,"ġ":226,"Ģ":227,"ģ":228,"Ĥ":229,"ĥ":230,"Ħ":231,"ħ":232,"Ĩ":233,"ĩ":234,"Ī":235,"ī":236,"Ĭ":237,"ĭ":238,"Į":239,"į":240,"İ":241,"ı":242,"Ĳ":243,"ĳ":244,"Ĵ":245,"ĵ":246,"Ķ":247,"ķ":248,"ĸ":249,"Ĺ":250,"ĺ":251,"Ļ":252,"ļ":253,"Ľ":254,"ľ":255,"Ŀ":256,"ŀ":257,"Ł":258,"ł":259,"Ń":260,"de":261,"Ġe":262,"Ġde":263,"Ġl":264,"os":265,"Ġp":266,"Ġa":267,"Ġc":268,"ue":269,"ar":270,"nt":271,"Ġs":272,"er":273,"as":274,"es":275,"ci":276,"on":277,"or":278,"ad":279,"que":280,"Ġla":281,"Ã³":282,"an":283,"al":284,"Ġque":285,"Ġm":286,"re":287,"Ġel":288,"st":289,"en":290,"Ġen":291,"un":292,"Ġt":293,"Ġy":294,"in":295,"Ġh":296,"ÃŃ":297,"Ã¡":298,"ent":299,"Ã³n":300,"Ġun":301,"di":302,"ra":303,"Ġse":304,"do":305,"ro":306,"Ġcon":307,"ti":308,"Ġn":309,"Ġlos":310,"om":311,"Ġf":312,"ic":313,"ado":314,"ciÃ³n":315,"Ġdel":316,"Ġv":317,"ri":318,"am":319,"Ġsu":320,"Ġre":321,"Ġha":322,"Ġpar":323,"le":324,"res":325,"Ġest":326,"Ġes":327,"Ã©":328,"ta":329,"Ġpor":330,"Ã±":331,"Ġo":332,"Ġal":333,"Ġlas":334,"ĠC":335,"ĠE":336,"da":337,"la":338,"bi":339,"Ġcom":340,"ĠA":341,"ec":342,"ÃŃa":343,"ol":344,"Ġin":345,"to":346,"ui":347,"ĠP":348,"Ġg":349,"vi":350,"Ġd":351,"mp":352,"ĠM":353,"Ġdi":354,"Ġi":355,"Ġpara":356,"Ġuna":357,"dad":358,"si":359,"Ġno":360,"nte":361,"ĠS":362,"Ãº":363,"Ġpro":364,"tu":365,"aciÃ³n":366,"ab":367,"cion":368,"li":369,"te":370,"Ġb":371,"ĠL":372,"Ã¡s":373,"ente":374,"lo":375,"Ġsi":376,"cia":377,"ada":378,"ari":379,"ero":380,"ur":381,"Ġac":382,"ch":383,"se":384,"mi":385,"Ġco":386,"Ġlo":387,"pa":388,"ali":389,"Ġdes":390,"ĠÂ":391,"ma":392,"Â»":393,"ul":394,"ce":395,"mo":396,"co":397,"ant":398,"ĠÂ«":399,"ras":400,"Ġmi":401,"qui":402,"Ġj":403,"ĠG":404,"00":405,"Ġme":406,"ento":407,"ca":408,"Ġex":409,"Ã¡n":410,"aj":411,"ist":412,"Ġ1":413,"ĠmÃ¡s":414,"Ġ2":415,"go":416,"Ġcu":417,"vo":418,"Ġ\"":419,"Ġcomo":420,"tor":421,"ran":422,"ciones":423,"ĠR":424,"ales":425,"ĠB":426,"era":427,"Ġto":428,"el":429,"Ġper":430,"ados":431,"ĠaÃ±":432,"Ġent":433,"unt":434,"Ġvi":435,"ando":436,"ica":437,"Ġ(":438,"at":439,"Ġti":440,"Ġres":441,"bre":442,"ĠT":443,"Ġmu":444,"ĠD":445,"uest":446,"eri":447,"tos":448,"dos":449,"ĠJ":450,"ern":451,"uer":452,"po":453,"ici":454,"Ġpres":455,"ru":456,"Ġcont":457,"ĠF":458,"Ġso":459,"ros":460,"Ġpre":461,"pe":462,"pi":463,"so":464,"Ġtra":465,"Ġci":466,"ll":467,"Ġle":468,"gi":469,"Ġpo":470,"El":471,"Ã©n":472,"ez":473,"paÃ±":474,"mos":475,"ĠV":476,"Ãºn":477,"gu":478,"ambi":479,"Ġser":480,"ĠI":481,"va":482,"ico":483,"tar":484,"ores":485,"cu":486,"Ġap":487,"ga":488,"ones":489,"encia":490,"Ġsus":491,"des":492,"rim":493,"du":494,"ĠN":495,"Ġint":496,"Ġeste":497,"Ġpas":498,"ĠEl":499,"ami":500,"der":501,"sta":502,"ntes":503,"Ġot":504,"Ġhan":505,"den":506,"Ġentre":507,"emp":508,"Ġ'":509,"ara":510,"Ġseg":511,"Ġten":512,"ana":513,"Ġfue":514,"ora":515,"za":516,"das":517,"Ġrec":518,"orm":519,"ver":520,"rÃ¡":521,"Ġma":522,"Ġca":523,"La":524,"Ġimp":525,"bl":526,"ano":527,"Ã©s":528,"ĠH":529,"us":530,"Ġlle":531,"Â».":532,"adas":533,"ambiÃ©n":534,"Ġparti":535,"ĠU":536,"ario":537,"is":538,"ĠLa":539,"Ġprim":540,"Ġpa":541,"ene":542,"per":543,"aron":544,"Ġcas":545,"Ġesta":546,"io":547,"Ġob":548,"il":549,"cer":550,"siÃ³n":551,"Ġpero":552,"osi":553,"ĠaÃ±os":554,"Ġsin":555,"ble":556,"Ġemp":557,"Ġya":558,"ba":559,"Ġpue":560,"min":561,"Ġexp":562,"Ġdos":563,"ia":564,"Ġcomp":565,"Ġau":566,"gar":567,"ir":568,"ĠEs":569,"Ġpr":570,"ten":571,"Ġmedi":572,"Ġas":573,"Ġhab":574,"baj":575,"Ġar":576,"Â»,":577,"amente":578,"Ġju":579,"em":580,"cl":581,"ces":582,"Ġmo":583,"sti":584,"cio":585,"pu":586,"Ġfin":587,"ĠO":588,"asta":589,"Ġqui":590,"pon":591,"ech":592,"aba":593,"ĠtambiÃ©n":594,"Ġnue":595,"son":596,"arÃ¡":597,"ĠAl":598,"Ġsobre":599,"ura":600,"ni":601,"tivo":602,"les":603,"no":604,"mente":605,"Ġdis":606,"ĠaÃ±o":607,"tiv":608,"et":609,"xi":610,"ani":611,"ide":612,"sa":613,"ĠEn":614,"ven":615,"dades":616,"aliz":617,"Ġni":618,"\",":619,"Ġinf":620,"entes":621,"eron":622,"na":623,"Ġmar":624,"Ġcar":625,"\".":626,"Ġdesde":627,"ac":628,"Ġay":629,"uel":630,"Ġ200":631,"Ġor":632,"Ġ3":633,"Ġab":634,"tas":635,"Ġperson":636,"ĠestÃ¡":637,"ve":638,"por":639,"Ġtrabaj":640,"zo":641,"smo":642,"jo":643,"tal":644,"Ġli":645,"endo":646,"cho":647,"erno":648,"ÃŃas":649,"cial":650,"um":651,"con":652,"uent":653,"uni":654,"Ġson":655,"uros":656,"obi":657,"ador":658,"ÃŃn":659,"tado":660,"Ãºl":661,"entos":662,"ĠCon":663,"Ġpe":664,"Ġhasta":665,"ener":666,"los":667,"ter":668,"En":669,"oy":670,"cias":671,"Ġdo":672,"Ġpla":673,"cen":674,"Ġhay":675,"cal":676,"amiento":677,"par":678,"fici":679,"Ġaf":680,"Ġmun":681,"mas":682,"car":683,"fic":684,"Ġan":685,"amos":686,"Ġtodo":687,"Ãºlti":688,"Ġmuy":689,"lic":690,"cas":691,"obierno":692,"gra":693,"Ġcre":694,"ĠMar":695,"ctor":696,"ina":697,"mb":698,"Ġeuros":699,"arios":700,"fer":701,"mÃ¡s":702,"Ġpol":703,"Ġmen":704,"Ġtras":705,"ĠEst":706,"Ġver":707,"gun":708,"esi":709,"paÃ±a":710,"ĠÃºlti":711,"Ġter":712,"qu":713,"udi":714,"ona":715,"),":716,"lan":717,"ĠSe":718,"Ã³m":719,"tr":720,"tura":721,"orma":722,"Ġporque":723,"ÃŃs":724,"Ġmay":725,"cha":726,"ĠRe":727,"tes":728,"cciÃ³n":729,"cional":730,"man":731,"Ġcuando":732,"Ġparte":733,"ber":734,"ido":735,"Ġpi":736,"dr":737,"Ġcor":738,"Ġinter":739,"alidad":740,"gue":741,"Ġcontra":742,"ÃŃti":743,"unto":744,"cos":745,"ĠY":746,"lar":747,"adores":748,"Ġequi":749,"ÃŃan":750,"Ġve":751,"bili":752,"Ġgran":753,"able":754,"lla":755,"Ġlu":756,"pec":757,"gui":758,"demÃ¡s":759,"ĠGobierno":760,"Ġmes":761,"Ġdeci":762,"Ġmej":763,"Ġtiene":764,"Ġpreside":765,"puest":766,"Ġcons":767,"gen":768,"Ġsol":769,"udad":770,"ĠÃ©":771,"Ġcam":772,"tiva":773,"me":774,"eros":775,"lam":776,"las":777,"urante":778,"anos":779,"Ġ20":780,"Ġad":781,"Ġcent":782,"ala":783,"cul":784,"rar":785,"miento":786,"Ġposi":787,"ino":788,"ub":789,"Ã³lo":790,"cre":791,"unque":792,"Ãºbl":793,"Ġah":794,"ele":795,"ren":796,"Ġmill":797,"uro":798,"Ġ4":799,"esti":800,"anto":801,"Ġsido":802,"Ġdon":803,"Ġmin":804,"Ã±o":805,"Ġbi":806,"Ġtres":807,"Ġna":808,"Ġhi":809,"Ġactu":810,"000":811,"Ġtodos":812,"ja":813,"ĠEspaÃ±a":814,"icos":815,"ĠsegÃºn":816,"zar":817,"cios":818,"Ġpasado":819,"Ġpresidente":820,"Ġayer":821,"ĠCom":822,"Ġdonde":823,"Ġ-":824,"jer":825,"Ġdire":826,"puÃ©s":827,"Ġciudad":828,"ment":829,"gos":830,"je":831,"Ġempres":832,"Ġmillones":833,"ĠespaÃ±":834,"cado":835,"Ġsal":836,"tÃ³":837,"ista":838,"aria":839,"gado":840,"Ġconsi":841,"ĠVal":842,"Ġhech":843,"ord":844,"Ġconf":845,"Ġ5":846,"ĠpÃºbl":847,"Ġhor":848,"Ġprodu":849,"gÃºn":850,"Ġcos":851,"ĠdÃŃa":852,"Ġ19":853,"Ġenc":854,"Ġhacer":855,"erior":856,"ste":857,"Ġdurante":858,"tra":859,"Ġhace":860,"dido":861,"inci":862,"Ġreci":863,"Ġcer":864,"Ġfuer":865,"Ġr":866,"Ġop":867,"Ġmayor":868,"Ġuno":869,"atro":870,"Ġnos":871,"can":872,"icas":873,"Ġinform":874,"Ġfal":875,"laciÃ³n":876,"Ġvez":877,"Ġro":878,"ĠJu":879,"Ġtiemp":880,"ĠDe":881,"Ġmejor":882,"pres":883,"yec":884,"Ġalgun":885,"ĠsÃ³lo":886,"clu":887,"Ġaunque":888,"emos":889,"uen":890,"Ġcal":891,"stas":892,"adi":893,"Ġsitu":894,"ĠpolÃŃti":895,"arse":896,"Ġmom":897,"ĠpaÃŃs":898,"oci":899,"adri":900,"Ġdef":901,"enta":902,"Ġgener":903,"ĠdespuÃ©s":904,"Ġne":905,"rado":906,"rib":907,"Ġda":908,"iÃ³n":909,"..":910,"almente":911,"Ġase":912,"Ġreg":913,"Ġante":914,"Ġsegun":915,"Ġpersonas":916,"taciÃ³n":917,"Ġpen":918,"Ġotros":919,"Ġequipo":920,"Ġant":921,"Ã©r":922,"ĠhabÃŃa":923,"Ġprimera":924,"ĠLos":925,"Ġprimer":926,"Ġquien":927,"ĠIn":928,"Ġref":929,"Ã±a":930,"ĠCas":931,"Ġ6":932,"Ġsent":933,"Ġnec":934,"Ġpuede":935,"ig":936,"Los":937,"Ġval":938,"ud":939,").":940,"Ġimpor":941,"Ġsoci":942,"Ġag":943,"ĠprÃ³":944,"Ġtu":945,"Ġpartido":946,"ĠasÃŃ":947,"Ġecon":948,"Ġva":949,"ĠJos":950,"Ġcri":951,"',":952,"cur":953,"tivos":954,"Ġrealiz":955,"Ġahora":956,"ĠCar":957,"Ġbien":958,"Ġjue":959,"ĠNa":960,"Ġfun":961,"Ġhoy":962,"Ġpropi":963,"var":964,"ĠUni":965,"Ġhoras":966,"Ġtiempo":967,"Ġman":968,"Ġte":969,"ral":970,"che":971,"ĠseÃ±":972,"ĠprÃ³xi":973,"Ã©c":974,"cÃŃa":975,"untos":976,"Ġmismo":977,"Ġcada":978,"Ġpresent":979,"Ġhecho":980,"Ġforma":981,"Ġmenos":982,"ĠNo":983,"Ġmant":984,"ĠestÃ¡n":985,"Ġservi":986,"stitu":987,"erna":988,"cÃ³":989,"âĢ":990,"fre":991,"tan":992,"Ġproyec":993,"tados":994,"Ġcin":995,"tros":996,"irm":997,"pos":998,"Ġnuevo":999,"ĠZ":1000,"raciÃ³n":1001,"ĠLe":1002,"Ġfi":1003,"Ġera":1004,"pal":1005,"Ġ201":1006,"Ġmuch":1007,"Ġbaj":1008,"Ġrespon":1009,"entras":1010,"Ġorg":1011,"bilidad":1012,"Ġpu":1013,"Ġcambi":1014,"Ġz":1015,"Ġgru":1016,"nta":1017,"Ġcuent":1018,".-":1019,"bor":1020,"olo":1021,"Ġespe":1022,"Ġri":1023,"Ġcaso":1024,"Ġpes":1025,"amili":1026,"ĠPor":1027,"idad":1028,"Ġconse":1029,"ĠespaÃ±ol":1030,"ĠJosÃ©":1031,"Ġantes":1032,"Ġtran":1033,"tido":1034,"Ġprinci":1035,"nos":1036,"gur":1037,"enci":1038,"Ġmis":1039,"aje":1040,"Ã±os":1041,"Ġgra":1042,"Ġcan":1043,"adrid":1044,"enen":1045,"Ġam":1046,"Ġindi":1047,"argo":1048,"Ġch":1049,"Ġmomento":1050,"aban":1051,"ena":1052,"Ġotro":1053,"ge":1054,"Ġu":1055,"ĠdÃŃas":1056,"ares":1057,"Ġedi":1058,"be":1059,"Ġvol":1060,"tir":1061,"ĠRo":1062,"Ġmunici":1063,"Ġdej":1064,"Ġgan":1065,"Ġesc":1066,"Ġcab":1067,"diÃ³":1068,"embre":1069,"ĠÃ":1070,"Ġtoda":1071,"ĠAy":1072,"unci":1073,"Ġencuent":1074,"Ġnuest":1075,"ban":1076,"Ġtanto":1077,"Ġese":1078,"Ġpuest":1079,"dia":1080,"ya":1081,"Ġfamili":1082,"siones":1083,"est":1084,"cti":1085,"ĠMadrid":1086,"Ġunos":1087,"Ġestos":1088,"pen":1089,"llo":1090,"Ġ7":1091,"ecu":1092,"br":1093,"Ġtrabajo":1094,"cido":1095,"it":1096,"Ġapro":1097,"Ġles":1098,"cel":1099,"vin":1100,"ĠBar":1101,"Ġtar":1102,"Ġsali":1103,"Ġjug":1104,"Por":1105,"Ġvida":1106,"Ġlleg":1107,"Ġlugar":1108,"Ġcuatro":1109,"Ġexplic":1110,"arro":1111,"empre":1112,"uda":1113,"Ġra":1114,"Ġven":1115,"mpli":1116,"Ġpermi":1117,"Ġfa":1118,"Ġmundo":1119,"Ãºm":1120,"untamiento":1121,"ĠK":1122,"ĠAr":1123,"ĠSant":1124,"Ġfu":1125,"Ġinst":1126,"ay":1127,"ed":1128,"ola":1129,"arias":1130,"quier":1131,"Ġresul":1132,"Ġpon":1133,"antes":1134,"Ġprof":1135,"ĠademÃ¡s":1136,"Ġpri":1137,"ĠCi":1138,"Ġtemp":1139,"Ġmer":1140,"Ġform":1141,"Ġfinal":1142,"tori":1143,"Ġemb":1144,"uar":1145,"drÃ¡":1146,"ĠeconÃ³m":1147,"Ġhom":1148,"Ãºs":1149,"tec":1150,"Ġmientras":1151,"uir":1152,"ea":1153,"ĠAn":1154,"Ġhist":1155,"unta":1156,"zado":1157,"ĠPP":1158,"Ġproble":1159,"Ġimporta":1160,"Ġcele":1161,"cont":1162,"Ġmucho":1163,"zaciÃ³n":1164,"ĠnÃºm":1165,"Ġpartici":1166,"sis":1167,"Ġ8":1168,"ĠPar":1169,"Ġvivi":1170,"Ġej":1171,"dal":1172,"ria":1173,"ĠAyuntamiento":1174,"ĠserÃ¡":1175,"Ġasegur":1176,"ĠDi":1177,"vas":1178,"bra":1179,"pital":1180,"Ġelec":1181,"Ã³r":1182,"ĠEuro":1183,"mana":1184,"Ġmeses":1185,"ĠCo":1186,"ĠSan":1187,"ono":1188,"Ġdecl":1189,"ÃŃst":1190,"Ġfre":1191,"Ġprevi":1192,"Ġban":1193,"fec":1194,"orn":1195,"Ġellos":1196,"Ġaut":1197,"gres":1198,"Ġllev":1199,"Ġotras":1200,"jos":1201,"sos":1202,"ĠsituaciÃ³n":1203,"Ġloc":1204,"Ġotra":1205,"Se":1206,"gan":1207,"oria":1208,"tivi":1209,"ĠCh":1210,"Ġmat":1211,"mento":1212,"Ġinv":1213,"Ġsiempre":1214,"atal":1215,"vel":1216,"Ġesa":1217,"Ġorgani":1218,"onal":1219,"Ġconst":1220,"arÃ¡n":1221,"Ġmujer":1222,"Ġdesta":1223,"Ġobje":1224,"yo":1225,"Ġpuntos":1226,"ante":1227,"Ġsab":1228,"Ġpodr":1229,"enda":1230,"Ġqued":1231,"ĠPero":1232,"Ġcual":1233,"sto":1234,"ĠnÃºmero":1235,"dida":1236,"Ġestado":1237,"Ġcomun":1238,"Ġrepres":1239,"Ġgrupo":1240,"ĠLo":1241,"ĠsÃŃ":1242,"Ġgeneral":1243,"ceso":1244,"Ġinclu":1245,"ctu":1246,"unidad":1247,"fica":1248,"Ġcl":1249,"ĠVi":1250,"Ġbar":1251,"ĠMe":1252,"Ġvo":1253,"ece":1254,"Ġvisi":1255,"ĠMan":1256,"val":1257,"Ġcul":1258,"cis":1259,"Ġmedio":1260,"Ġeso":1261,"ĠseÃ±al":1262,"lu":1263,"ĠÃ¡":1264,"Ġcuenta":1265,"pul":1266,"minist":1267,"onio":1268,"Ġtienen":1269,"Ġtan":1270,"toria":1271,"erto":1272,"eza":1273,"Ã¡ti":1274,"Ġinici":1275,"zas":1276,"olu":1277,"Ġasi":1278,"Ġtrans":1279,"Ġ9":1280,"Ġhaber":1281,"fe":1282,"len":1283,"lio":1284,"Ġnin":1285,"cidad":1286,"rÃ³":1287,"Ġconce":1288,"edad":1289,"Ġalgo":1290,"Ġminist":1291,"Ġcentro":1292,"ridad":1293,"Ġalcal":1294,"Ġden":1295,"erio":1296,"ĠSu":1297,"Ġcinco":1298,"Ġrecibi":1299,"Ġqu":1300,"ĠFran":1301,"Ġpoco":1302,"istas":1303,"Ġnecesi":1304,"ciaciÃ³n":1305,"tad":1306,"Ġllam":1307,"ĠÃģ":1308,"ĠAs":1309,"ha":1310,"Ġsegu":1311,"anza":1312,"tivas":1313,"Ġcontin":1314,"ĠW":1315,"Ġdifer":1316,"Ġestas":1317,"Ġestudi":1318,"ĠÃºn":1319,"zÃ³":1320,"Ġvic":1321,"dencia":1322,"Ġdefen":1323,"Ġtotal":1324,"Ġdiri":1325,"Ġide":1326,"rÃŃa":1327,"Ġsuper":1328,"Ġdesarro":1329,"Ġdar":1330,"Ġproyecto":1331,"Ġtener":1332,"Ġnueva":1333,"Ġencont":1334,"uerdo":1335,"No":1336,"Ġhabi":1337,"Ġzona":1338,"ĠÃ©l":1339,"Ġcrisis":1340,"Ġapo":1341,"gua":1342,"men":1343,"ĠÃºltimo":1344,"Ġdirector":1345,"ves":1346,"Ġtom":1347,"Â«":1348,"ĠPa":1349,"Ġminu":1350,"lica":1351,"Ġsemana":1352,"Ġregi":1353,"Ã±ana":1354,"Ġcole":1355,"osiciÃ³n":1356,"ĠInt":1357,"vos":1358,"Ġtodas":1359,"Ġir":1360,"fi":1361,"Ġfueron":1362,"ĠCam":1363,"ĠAnt":1364,"Ġsino":1365,"Ġfrente":1366,"dera":1367,"Ġapar":1368,"Ġ10":1369,"Ġrespec":1370,"ase":1371,"ĠpÃºblico":1372,"Ġnada":1373,"Ġestar":1374,"oso":1375,"ĠConse":1376,"ere":1377,"gaciÃ³n":1378,"Ġvuel":1379,"ĠSi":1380,"Ġtempor":1381,"ĠMo":1382,"Ġactivi":1383,"orte":1384,"ĠcompaÃ±":1385,"Ġesper":1386,"Ġemple":1387,"Ġmal":1388,"vil":1389,"Ġcasi":1390,"Ġsector":1391,"dez":1392,"aja":1393,"Ã©cn":1394,"tores":1395,"Ġinvesti":1396,"ĠLas":1397,"ĠÃºltimos":1398,"Ġcono":1399,"Ġprogra":1400,"ĠPol":1401,"Ġdere":1402,"Ġrela":1403,"Ġcomunic":1404,"ĠmÃ¡":1405,"tro":1406,"ÃŃo":1407,"Ġur":1408,"Ġext":1409,"ĠJuan":1410,"ini":1411,"avi":1412,"ĠmaÃ±ana":1413,"rada":1414,"Ġtor":1415,"pera":1416,"rido":1417,"bol":1418,"Ġpos":1419,"Ġafec":1420,"Ġello":1421,"gura":1422,"Ġmani":1423,"and":1424,"ĠPS":1425,"Ġofre":1426,"Ġalgunos":1427,"Ġ15":1428,"cimiento":1429,"tario":1430,"Ġexist":1431,"eo":1432,"Ġsa":1433,"tero":1434,"Ġdese":1435,"Ġgas":1436,"Ġdest":1437,"Ġofici":1438,"ĠGar":1439,"Ġcomple":1440,"dor":1441,"Ġk":1442,"Ġgol":1443,"Ġfe":1444,"ama":1445,"ĠTo":1446,"Ġmuchos":1447,"ĠprÃ³ximo":1448,"una":1449,"Ġade":1450,"Las":1451,"ĠlÃŃ":1452,"quÃŃ":1453,"Ġtri":1454,"Ġpal":1455,"Ġat":1456,"Ġlog":1457,"Ġdijo":1458,"bo":1459,"im":1460,"gÃŃa":1461,"Ġcant":1462,"dÃŃa":1463,"fa":1464,"bles":1465,"eria":1466,"ien":1467,"Ġsea":1468,"ĠÂ¿":1469,"icÃŃa":1470,"vor":1471,"esta":1472,"dio":1473,"Ġbuen":1474,"ĠtÃ©cn":1475,"llas":1476,"cin":1477,"vÃ©s":1478,"Ġhora":1479,"tel":1480,"Ġsig":1481,"ĠX":1482,"Ġtipo":1483,"Ġembargo":1484,"inos":1485,"versi":1486,"Ġsupon":1487,"Ġcompe":1488,"Ġsegundo":1489,"ĠMa":1490,"oni":1491,"uis":1492,"Ġevi":1493,"Ġestaba":1494,"Ġestable":1495,"...":1496,"Ġtal":1497,"Ġale":1498,"Ġespec":1499,"Ġfinan":1500,"tada":1501,"Es":1502,"van":1503,"Ġimportante":1504,"Ġcontro":1505,"Ġpuesto":1506,"ete":1507,"Ġempresa":1508,"ĠpolÃŃtica":1509,"Ġsecre":1510,"vÃŃa":1511,"puesto":1512,"Ġtarde":1513,"Ġplan":1514,"Ã©di":1515,"Ġaque":1516,"Ġnom":1517,"Ġpoder":1518,"puesta":1519,"alista":1520,"ing":1521,"culo":1522,"gual":1523,"encias":1524,"Ġacuerdo":1525,"Ġocas":1526,"Ġpat":1527,"mar":1528,"Ġprovin":1529,"Ġcompro":1530,"Ġbue":1531,"Ġcr":1532,"ables":1533,"Ġmos":1534,"Ġgente":1535,"Ġtr":1536,"ĠcÃ³":1537,"'.":1538,"Ġcasa":1539,"ĠcÃ¡":1540,"su":1541,"Ġ12":1542,"Ġ2009":1543,"Ġredu":1544,"pio":1545,"caciÃ³n":1546,"dan":1547,"Ġefec":1548,"ĠSal":1549,"Ġbus":1550,"onces":1551,"Ġcomer":1552,"ĠtravÃ©s":1553,"dente":1554,"ĠEstado":1555,"Ġcomen":1556,"tiÃ³":1557,"erra":1558,"fico":1559,"peraciÃ³n":1560,"erÃŃa":1561,"Ġespecial":1562,"Ġsegunda":1563,"Ġregist":1564,"Ġpueden":1565,"Ġinte":1566,"Ġrecon":1567,"ĠMur":1568,"Ġperio":1569,"ut":1570,"ciÃ³":1571,"Ġseis":1572,"Ġreuni":1573,"Ġdeclar":1574,"Ġele":1575,"dalu":1576,"Ġley":1577,"lig":1578,"eras":1579,"Ġpeque":1580,"Ġinterna":1581,"Ġfalta":1582,"Ġconver":1583,"Ġabri":1584,"ĠCor":1585,"ĠquÃ©":1586,"Ġgu":1587,"Ġnego":1588,"Ġhizo":1589,"Ġeuro":1590,"Ã³g":1591,"ismo":1592,"Ġunas":1593,"Ġpunto":1594,"pre":1595,"lor":1596,"Ġjunto":1597,"nto":1598,"ric":1599,"ĠQ":1600,"lado":1601,"Ġamb":1602,"Ġllegar":1603,"Ġdirec":1604,"Ġjorn":1605,"Ġcol":1606,"Ġnivel":1607,"OE":1608,"omÃŃa":1609,"gel":1610,"Ġobras":1611,"Ġfuera":1612,"gas":1613,"ĠAdemÃ¡s":1614,"illa":1615,"Ġrespons":1616,"ĠUn":1617,"Ġempresas":1618,"Ġtrata":1619,"ĠMin":1620,"iones":1621,"Ġinver":1622,"Ġcuar":1623,"Ġanunci":1624,"Ġsentido":1625,"Ġdomin":1626,"ĠFern":1627,"adre":1628,"Ġaprob":1629,"Ġmisma":1630,"cil":1631,"Ġlabor":1632,"Ġru":1633,"tili":1634,"Ġmuer":1635,"Ġposible":1636,"Ġrecord":1637,"Ġconoci":1638,"Ġalcan":1639,"com":1640,"ĠaÃºn":1641,"ĠPro":1642,"Ġrecu":1643,"Ġgrandes":1644,"bres":1645,"Ġsuf":1646,"tamente":1647,"ĠMi":1648,"Ġcola":1649,"Ġpuer":1650,"ĠValencia":1651,"Ġalcalde":1652,"ens":1653,"eta":1654,"rera":1655,"ĠLi":1656,"Ġveci":1657,"unca":1658,"tat":1659,"Ġcir":1660,"Ġhistoria":1661,"Ġsub":1662,"Ġcalle":1663,"Ġminutos":1664,"Ġsigue":1665,"ancia":1666,"tural":1667,"dir":1668,"ĠGener":1669,"pti":1670,"eni":1671,"ĠLuis":1672,"bros":1673,"pales":1674,".\"":1675,"Ġdecir":1676,"apa":1677,"Ġdeb":1678,"ĠmÃŃ":1679,"ĠMarÃŃa":1680,"ror":1681,"uri":1682,"Ġcara":1683,"Ġdif":1684,"Ġcapa":1685,"Ġmedia":1686,"cor":1687,"Ġbal":1688,"Ġdepor":1689,"Ġcualquier":1690,"Ġmetros":1691,"rucciÃ³n":1692,"tavo":1693,"Ġcaus":1694,"hi":1695,"tÃŃn":1696,"Ġdeten":1697,"Ġconj":1698,"torio":1699,"Ġpartir":1700,"Ġneces":1701,"Ġciento":1702,"Ġclar":1703,"Ġparticip":1704,"ĠâĢ":1705,"Ġuni":1706,"Ġfutu":1707,"visiÃ³n":1708,"dar":1709,"ger":1710,"ĠMÃ¡":1711,"Ġdin":1712,"Ġdist":1713,"ĠSo":1714,"ĠvÃŃ":1715,"Ġfavor":1716,"bas":1717,"Ġfuncion":1718,"ntro":1719,"Ġsue":1720,"Ġacus":1721,"ficaciÃ³n":1722,"Ġmanera":1723,"Ġaten":1724,"Ġconsegui":1725,"Ġcompar":1726,"ĠmÃ¡xi":1727,".Â«":1728,"Ġvalor":1729,"rados":1730,"ĠPo":1731,"Ġ18":1732,"laga":1733,"stema":1734,"Ġservicios":1735,"cent":1736,"Ġ2010":1737,"Ġ11":1738,"De":1739,"tbol":1740,"Ġorden":1741,"Ġdebe":1742,"ĠMun":1743,"gor":1744,"ĠTor":1745,"Ġtele":1746,"Ġsistema":1747,"hÃŃ":1748,"ĠDes":1749,"rÃ¡n":1750,"uido":1751,"Ġhabl":1752,"bro":1753,"Ġresto":1754,"Ġprofesi":1755,"ĠcÃ³mo":1756,"ĠMurcia":1757,"ĠHa":1758,"Ġejemp":1759,"Ġtuvo":1760,"Ġdatos":1761,"Ġcosas":1762,"Ġobjetivo":1763,"aciones":1764,"ĠRa":1765,"Ġrepresent":1766,"Ġacab":1767,"ĠEj":1768,"uy":1769,"Ġmostr":1770,"Ġafirm":1771,"Ġpremi":1772,"Ġespeci":1773,"ĠÃºltima":1774,"Ġ30":1775,"Ġrecur":1776,"Ġcapital":1777,"ĠMinist":1778,"Ġsubi":1779,"amientos":1780,"Ġhe":1781,"Ġtemporada":1782,"tilla":1783,"umi":1784,"Ġfuentes":1785,"Ġrecor":1786,"Ġconven":1787,"arÃŃa":1788,"pro":1789,"ĠNacional":1790,"ida":1791,"Ġreco":1792,"Ġseguridad":1793,"Ġigual":1794,"Ġproblemas":1795,"ĠlÃŃn":1796,"Ġutili":1797,"ĠpaÃŃses":1798,"Ġkil":1799,"Ġescri":1800,"Ġrespecto":1801,"cep":1802,"riÃ³":1803,"Ġproce":1804,"eces":1805,"gn":1806,"mple":1807,"ĠCant":1808,"Ġprue":1809,"Ġservicio":1810,"Al":1811,"Ġhum":1812,"mientos":1813,"Ġbo":1814,"Ġestu":1815,"Ġins":1816,"Ġencar":1817,"llos":1818,"ecutivo":1819,"rea":1820,"Ġcambio":1821,"Ġportavo":1822,"dica":1823,"culos":1824,"zos":1825,"Ġdentro":1826,"Ġacom":1827,"ĠEuropa":1828,"Ġespa":1829,"gio":1830,"Ġ2008":1831,"rez":1832,"Ġpaso":1833,"apatero":1834,"Ġincluso":1835,"Ġactual":1836,"tantes":1837,"ĠAntonio":1838,"ĠFe":1839,"Ġhacia":1840,"alistas":1841,"Ġinstitu":1842,"Ġobra":1843,"Ġpopul":1844,"Ġmarcha":1845,"pel":1846,"cionales":1847,"Ġmiem":1848,"Ġgesti":1849,"ĠSer":1850,"ĠMÃ¡laga":1851,"port":1852,"Ġcuest":1853,"ĠSin":1854,"ĠdecisiÃ³n":1855,"ubi":1856,"Ġdeber":1857,"lÃŃ":1858,"Ġministro":1859,"ĠPolicÃŃa":1860,"Ġfran":1861,"Ġbajo":1862,"Ġcondi":1863,"Con":1864,"Ġcandida":1865,"Ġdocu":1866,"Ġenero":1867,"Ġinten":1868,"Ġ14":1869,"ard":1870,"ciendo":1871,"Ġmanif":1872,"Ġfuturo":1873,"ĠtenÃŃa":1874,"Ġocur":1875,"cup":1876,"ĠespaÃ±ola":1877,"ĠPSOE":1878,"Ġpreg":1879,"dial":1880,"Ġreconoci":1881,"Ġnunca":1882,"Ġfamilia":1883,"celona":1884,"Ġincre":1885,"ecer":1886,"Â¿":1887,"ĠPara":1888,"endas":1889,"Ġclas":1890,"Ġentren":1891,"Ġproduc":1892,"Ġsocial":1893,"Ġceleb":1894,"ĠeconÃ³mica":1895,"Ġpren":1896,"sociaciÃ³n":1897,"ĠEste":1898,"Ġentonces":1899,"Ġdisti":1900,"Ġtermin":1901,"ĠReal":1902,"Ã¡ndez":1903,"teri":1904,"ĠmayorÃŃa":1905,"ĠOr":1906,"ĠexplicÃ³":1907,"vent":1908,"Ġliber":1909,"Ġdiez":1910,"Ġciudadanos":1911,"Ġmercado":1912,"esiÃ³n":1913,"Ġ16":1914,"respon":1915,"Ġ25":1916,"ĠdÃ©":1917,"Ġadminist":1918,"gal":1919,"ĠCa":1920,"abria":1921,"Ġportavoz":1922,"Ġtenido":1923,"ĠtÃŃ":1924,"Ġho":1925,"erta":1926,"Ġfo":1927,"ĠZapatero":1928,"Ġnoche":1929,"ula":1930,"Ġmedidas":1931,"Ġami":1932,"ĠJo":1933,"Ġclub":1934,"SegÃºn":1935,"zÃ³n":1936,"dust":1937,"chos":1938,"Ġintent":1939,"cir":1940,"Ġcumpli":1941,"Ġampli":1942,"elÃŃ":1943,"ĠpodrÃŃa":1944,"Ġvarios":1945,"Ġnovi":1946,"tud":1947,"guez":1948,"pas":1949,"fo":1950,"Ġcolabor":1951,"Ġinteres":1952,"Ġsolici":1953,"Ġus":1954,"gÃ³":1955,"TA":1956,"taron":1957,"Ġmuchas":1958,"Ġconcej":1959,"gada":1960,"Ã©ti":1961,"Ġvent":1962,"Ġhemos":1963,"30":1964,"bar":1965,"Ġencuentro":1966,"ribun":1967,"taciones":1968,"nti":1969,"Ġlargo":1970,"Ġ17":1971,"Ġauto":1972,"Ġgar":1973,"rÃ¡fico":1974,"Ġ199":1975,"ĠvehÃŃ":1976,"zÃ¡":1977,"Ġdicho":1978,"Ġvan":1979,"Ġjornada":1980,"ĠAsÃŃ":1981,"dores":1982,"icante":1983,"Ġsolo":1984,"Ġpens":1985,"rio":1986,"irma":1987,"ajes":1988,"Ġder":1989,"ĠCastilla":1990,"diente":1991,"Ġpartidos":1992,"Ġseguir":1993,"Ġhos":1994,"Ġcif":1995,"Ġanti":1996,"ĠMinisterio":1997,"Ġhaya":1998,"Ġdado":1999,"Ġini":2000,"Ġproceso":2001,"Ġlado":2002,"uela":2003,"Ġdinero":2004,"osa":2005,"etros":2006,"Ġ0":2007,"iscal":2008,"tera":2009,"ĠCantabria":2010,"Ġescen":2011,"pl":2012,"au":2013,"ine":2014,"ort":2015,"Ġapunt":2016,"mismo":2017,"oma":2018,"Ġprimeros":2019,"ep":2020,"olÃ³g":2021,"erv":2022,"ĠCu":2023,"Ġconfi":2024,"Ġcur":2025,"Ġpesar":2026,"turas":2027,"ĠBarcelona":2028,"sas":2029,"ĠningÃºn":2030,"Ġlocal":2031,"Ġpresu":2032,"iguel":2033,"Ġeurope":2034,"mer":2035,"Ġsac":2036,"tis":2037,"Ġdici":2038,"Ġbuena":2039,"Ġfinanci":2040,"Ġdesa":2041,"Ġcontrol":2042,"ĠUna":2043,"Ġproblema":2044,"ordin":2045,"adie":2046,"Ġponer":2047,"Ġconvi":2048,"Ġjuego":2049,"Ġvecinos":2050,"Ġagua":2051,"ĠMu":2052,"Ġsos":2053,"tÃ¡":2054,"isiÃ³n":2055,"ĠvÃŃcti":2056,"%,":2057,"Ġveces":2058,"gido":2059,"inas":2060,"blic":2061,"Ġmili":2062,"Ġher":2063,"Ġnacional":2064,"tam":2065,"Ġadela":2066,"Para":2067,"Ġpropio":2068,"yÃ³":2069,"Ġdiciembre":2070,"Ġesto":2071,"Ġexperi":2072,"ori":2073,"Ġpare":2074,"Ġcuanto":2075,"Ġani":2076,"ĠGuar":2077,"eb":2078,"ĠMartÃŃn":2079,"jas":2080,"ĠCent":2081,"tag":2082,"uego":2083,"Ġabi":2084,"bido":2085,"Ġautori":2086,"venes":2087,"ĠTambiÃ©n":2088,"uestra":2089,"ĠJunta":2090,"Ġempez":2091,"Ġprograma":2092,"Ġsom":2093,"Ġ13":2094,"dentes":2095,"Ġprovincia":2096,"Ġdeli":2097,"Ġsiete":2098,"poco":2099,"Ġinicia":2100,"Ġmode":2101,"Ġjo":2102,"adora":2103,"ye":2104,"Ġconocer":2105,"cri":2106,"Ġconsidera":2107,"Ã¡b":2108,"ĠAlicante":2109,"tali":2110,"Ġata":2111,"Ġjugadores":2112,"cili":2113,"rir":2114,"Ġconjunto":2115,"cula":2116,"ĠasegurÃ³":2117,"Ġima":2118,"Ġinterven":2119,"Ġconsider":2120,"Ġasist":2121,"Ġprensa":2122,"Ã³venes":2123,"ko":2124,"Ġaco":2125,"ĠMiguel":2126,"Ġella":2127,"Ġcorrespon":2128,"ich":2129,"Ġseri":2130,"ĠmÃºs":2131,"vieron":2132,"Ġyo":2133,"cados":2134,"Ġje":2135,"Ġperman":2136,"Ġmujeres":2137,"Ġsigui":2138,"ual":2139,"curso":2140,"Ġejer":2141,"AdemÃ¡s":2142,"Ġcarrera":2143,"ĠCarlos":2144,"Ġclaro":2145,"ĠdifÃŃ":2146,"Ġpersonal":2147,"Ġejemplo":2148,"Ġsan":2149,"Ġbas":2150,"Ġarti":2151,"Ġpalab":2152,"Ġconcre":2153,"ĠniÃ±os":2154,"gados":2155,"stante":2156,"ĠinformaciÃ³n":2157,"ĠGarcÃŃa":2158,"Ġcli":2159,"Ġcabo":2160,"Ġdesp":2161,"Ġextra":2162,"Ġatra":2163,"ficio":2164,"Ġcondu":2165,"unda":2166,"Ġinde":2167,"ĠCivil":2168,"ĠAle":2169,"ĠLeÃ³n":2170,"Ġnuevas":2171,"Ġsegui":2172,"Ġhombre":2173,"ĠtodavÃŃa":2174,"Ġapoyo":2175,"ampoco":2176,"Ġba":2177,"ĠjÃ³venes":2178,"tÃ¡n":2179,"Ġparece":2180,"drÃŃ":2181,"ental":2182,"ĠrelaciÃ³n":2183,"Ġnuestro":2184,"Ġexplica":2185,"isto":2186,"lÃ¡":2187,"Ġcasos":2188,"Ġocho":2189,"tell":2190,"Ġnuevos":2191,"Ġtrabajadores":2192,"Ġ2011":2193,"Ġjoven":2194,"greso":2195,"Ġapor":2196,"Ġcampo":2197,"ferencia":2198,"Ġquiere":2199,"Ġningun":2200,"ĠcampaÃ±a":2201,"Ġprotag":2202,"Ġmedios":2203,"Ġtur":2204,"ĠhabÃŃan":2205,"ĠEjecutivo":2206,"sticia":2207,"uencia":2208,"Ġauton":2209,"ĠlÃŃder":2210,"mbi":2211,"Ġdesarroll":2212,"Ġconvo":2213,"ĠespaÃ±oles":2214,"dose":2215,"Ġespera":2216,"tadas":2217,"ese":2218,"Ġestre":2219,"ront":2220,"Ġacer":2221,"Ġsociedad":2222,"Ġmunicipal":2223,"Ġdedi":2224,"ĠAndalu":2225,"ĠEx":2226,"Ġpromo":2227,"Ġnuestra":2228,"Ġsele":2229,"Ġsiendo":2230,"ĠFrancis":2231,"Ġanterior":2232,"Ġfech":2233,"ĠEsta":2234,"lares":2235,"Ġbene":2236,"Ġcalidad":2237,"drÃŃguez":2238,"ĠtendrÃ¡":2239,"ĠmÃ©di":2240,"ĠPal":2241,"Ġprimero":2242,"ĠAd":2243,"ck":2244,"pios":2245,"ĠllegÃ³":2246,"Ġsupone":2247,"ĠÃºnico":2248,"Ġmovi":2249,"ĠManuel":2250,"Ġafi":2251,"Ġ2007":2252,"versidad":2253,"Ġpasar":2254,"ĠkilÃ³m":2255,"Ã±as":2256,"Ġinsi":2257,"-,":2258,"Ġgarant":2259,"zada":2260,"ĠlÃŃnea":2261,"Ġprovo":2262,"ĠPed":2263,"Ġviol":2264,"acto":2265,"Ġplante":2266,"ngel":2267,"ander":2268,"Ġmiembros":2269,"Ġgal":2270,"hora":2271,"Ġtradi":2272,"ĠGran":2273,"Ġexpres":2274,"Ġcolec":2275,"Ġaument":2276,"ribunal":2277,"ntre":2278,"ĠpÃºblica":2279,"Ġgobierno":2280,"Ġdispon":2281,"tur":2282,"Ġdice":2283,"Ġcorre":2284,"oluciÃ³n":2285,"cter":2286,"Ġactividad":2287,"Ġdefini":2288,"esa":2289,"ĠRodrÃŃguez":2290,"uciÃ³n":2291,"Ġsup":2292,"udas":2293,"Ġtitu":2294,"onales":2295,"Ġdisf":2296,"Ġdio":2297,"censo":2298,"blo":2299,"mentos":2300,"ton":2301,"vech":2302,"Ġalgunas":2303,"Ġacto":2304,"Ġ50":2305,"Ġsor":2306,"Ġsur":2307,"Ġlocalidad":2308,"Ġprepar":2309,"ĠreuniÃ³n":2310,"Ġfac":2311,"ntas":2312,"Ġfon":2313,"Ġconci":2314,"Ġ21":2315,"Ġempleo":2316,"Ġpreten":2317,"Ġobli":2318,"ĠpelÃŃ":2319,"asco":2320,"termin":2321,"Ġellas":2322,"Ġpob":2323,"col":2324,"Ġoport":2325,"ĠconstrucciÃ³n":2326,"Ġesf":2327,"Ġterror":2328,"Ġplaza":2329,"tando":2330,"Ġautor":2331,"Ġfor":2332,"Ġmanifes":2333,"Ġlan":2334,"Ġevitar":2335,"Ġvalenci":2336,"ĠFrancisco":2337,"Ġdomingo":2338,"Ġcargo":2339,"ĠtÃŃtu":2340,"Ġavi":2341,"viÃ³":2342,"manas":2343,"Ġambi":2344,"ologÃŃa":2345,"Ġcampe":2346,"Ġgo":2347,"Ġpapel":2348,"ĠPe":2349,"Ġagentes":2350,"eran":2351,"Ġsecretario":2352,"ĠCÃ¡":2353,"Ġcali":2354,"Ġcompeti":2355,"ale":2356,"Ġdispu":2357,"Ġelecciones":2358,"ĠÃģngel":2359,"âĢĿ":2360,"Ġrepar":2361,"lez":2362,"Ġdiver":2363,"Ġnorm":2364,"Ġnadie":2365,"ulta":2366,"Ġambos":2367,"Ġinvi":2368,"Ġcerca":2369,"Ġvarias":2370,"Un":2371,"ptiembre":2372,"Si":2373,"Ġemi":2374,"Ġnombre":2375,"Ġpresencia":2376,"Ġcate":2377,"Ġtem":2378,"Ġmedida":2379,"Des":2380,"Ġpersona":2381,"oli":2382,"dam":2383,"lad":2384,"Ġconfirm":2385,"Ġmoder":2386,"ĠacompaÃ±":2387,"ĠMor":2388,"Ġbri":2389,"Ġ22":2390,"ler":2391,"onar":2392,"unidades":2393,"via":2394,"Ġdiferentes":2395,"Ġposibilidad":2396,"leno":2397,"Ġseptiembre":2398,"cular":2399,"ĠinvestigaciÃ³n":2400,"ĠEstados":2401,"tarÃ¡":2402,"Ġcomunicado":2403,"bel":2404,"uerra":2405,"Ġmano":2406,"Ãºtbol":2407,"gles":2408,"jero":2409,"Ġjulio":2410,"Ġori":2411,"eno":2412,"icamente":2413,"Ġaplic":2414,"Ġvisto":2415,"uicio":2416,"Ġtenemos":2417,"ne":2418,"ĠSa":2419,"ĠseÃ±alÃ³":2420,"Ġterc":2421,"Ġvolver":2422,"ĠorganizaciÃ³n":2423,"Ġdepen":2424,"unio":2425,"Ġresponsable":2426,"Ġcontr":2427,"ĠCul":2428,"ĠÃ©xi":2429,"Ġasegura":2430,"rÃ¡cti":2431,"Ġinstal":2432,"dieron":2433,"Ġconte":2434,"ĠaquÃŃ":2435,"Ġresultado":2436,"Ġavan":2437,"Ġpues":2438,"ju":2439,"onas":2440,"Ġcuad":2441,"Ġenfer":2442,"Ġinternacional":2443,"graf":2444,"Ġcontinu":2445,"Ġganar":2446,"seÃ±":2447,"ĠdifÃŃcil":2448,"%.":2449,"Ġabs":2450,"dado":2451,"ctubre":2452,"Ġrecuper":2453,"Ġqueda":2454,"Ġrealidad":2455,"Ġconden":2456,"Ġases":2457,"Ġcoment":2458,"Ġvictoria":2459,"Ġnoviembre":2460,"Ġesos":2461,"Ġayuda":2462,"alizaciÃ³n":2463,"Ġmayo":2464,"Ġali":2465,"Ġincl":2466,"ĠConsejo":2467,"Ġjunio":2468,"Ġprincipal":2469,"Ġ24":2470,"ĠEurope":2471,"ĠAndalucÃŃa":2472,"Ġcirc":2473,"ĠBan":2474,"Ġev":2475,"ĠGon":2476,"Ġsalida":2477,"pez":2478,"Ġblan":2479,"tivamente":2480,"ĠâĢľ":2481,"ciales":2482,"Ġreclam":2483,"Ġsocialista":2484,"xto":2485,"he":2486,"Ġpublic":2487,"Ġinforme":2488,"Ġries":2489,"ĠfÃ¡":2490,"ernes":2491,"Ġhubi":2492,"Ġvisita":2493,"tre":2494,"eter":2495,"ĠSegÃºn":2496,"enas":2497,"Ġgracias":2498,"Ġdesarrollo":2499,"Ġdefensa":2500,"ĠFernÃ¡ndez":2501,"Ġllevar":2502,"cada":2503,"Ġjugador":2504,"Ġdetermin":2505,"ĠUr":2506,"iene":2507,"ĠCan":2508,"eriores":2509,"Ġlleva":2510,"Ġprecis":2511,"Ġado":2512,"Ġdisfru":2513,"Ã³pez":2514,"Ġmantener":2515,"Ġexi":2516,"Ġjudi":2517,"Ġcru":2518,"Ġresta":2519,"Ġcondiciones":2520,"Ġaband":2521,"Ġoctubre":2522,"ĠIs":2523,"ĠformaciÃ³n":2524,"Ġcine":2525,"Ġjugar":2526,"ĠUnidos":2527,"Ġindust":2528,"Ġenci":2529,"Pero":2530,"Ġpregunt":2531,"Ãºa":2532,"trÃ¡s":2533,"Ġjuez":2534,"Ġedu":2535,"Ġopin":2536,"onso":2537,"diendo":2538,"ĠprÃ¡cti":2539,"taria":2540,"ĠJavi":2541,"ĠkilÃ³metros":2542,"Ġdeman":2543,"tras":2544,"gida":2545,"Ġterri":2546,"Ġquienes":2547,"Ġjefe":2548,"ĠsÃ¡b":2549,"ĠactuaciÃ³n":2550,"omo":2551,"Ġtraslad":2552,"deraciÃ³n":2553,"Ġsubra":2554,"ĠediciÃ³n":2555,"Ġcelebr":2556,"sÃŃ":2557,"ĠGuardia":2558,"asa":2559,"Ġaprovech":2560,"Ġmuerte":2561,"Ġred":2562,"Ġacudi":2563,"Ġenfre":2564,"ĠmÃŃni":2565,"ki":2566,"alizar":2567,"Ġplazo":2568,"ĠRegi":2569,"Ġconclu":2570,"Ġalguna":2571,"cle":2572,"Ġejecu":2573,"ĠgestiÃ³n":2574,"Ġrefle":2575,"Ġdejar":2576,"unes":2577,"ĠPre":2578,"Est":2579,"abor":2580,"Ġencuentra":2581,"Ġconseguir":2582,"Ġgrupos":2583,"Ġjuicio":2584,"Ġconsec":2585,"ho":2586,"anas":2587,"Ġactividades":2588,"ĠpoblaciÃ³n":2589,"Ġesfuer":2590,"ĠOb":2591,"ĠalgÃºn":2592,"ÃŃstica":2593,"bajo":2594,"nov":2595,"Ġtant":2596,"Ġcla":2597,"Ġespacio":2598,"este":2599,"Ġnorte":2600,"Ġpropia":2601,"Ġ40":2602,"Ġofer":2603,"ĠLÃ³pez":2604,"ĠtÃ©cnico":2605,"Ġfalle":2606,"Ġrespe":2607,"ĠRi":2608,"ĠdirecciÃ³n":2609,"Ġpriv":2610,"Ġfirm":2611,"Ġprecio":2612,"Ġcolo":2613,"ruc":2614,"ĠVic":2615,"drÃ¡n":2616,"uelo":2617,"Ġdele":2618,"remos":2619,"ĠserÃŃa":2620,"Ġguar":2621,"ĠValenci":2622,"Ġconcejal":2623,"Ġingres":2624,"dientes":2625,"ĠPlan":2626,"Ġresi":2627,"Ġestamos":2628,"villa":2629,"Ġdeclara":2630,"Ġviernes":2631,"Ġis":2632,"Ġadmi":2633,"ĠBo":2634,"umo":2635,"Ġmala":2636,"uesta":2637,"Ġpreo":2638,"Ġpresi":2639,"Ġlegi":2640,"Ġdemos":2641,"Ġfil":2642,"vidad":2643,"Ġinci":2644,"uerto":2645,"ficar":2646,"ueva":2647,"simismo":2648,"Ġescu":2649,"Ġcier":2650,"ĠPla":2651,"Ġpl":2652,"cto":2653,"Ġluego":2654,"Ġsemanas":2655,"sic":2656,"20":2657,"one":2658,"Ġviaj":2659,"Ġocasiones":2660,"uras":2661,"Ġrecono":2662,"ĠPedro":2663,"Ġresponsa":2664,"para":2665,"Ġreforma":2666,"Ġrepresenta":2667,"ĠmÃºsica":2668,"ficado":2669,"ĠmÃ¡ximo":2670,"ÃŃsi":2671,"Ġcuer":2672,"gente":2673,"Ġmunicipio":2674,"Ġlocales":2675,"ĠPres":2676,"Ġequipos":2677,"Ġmateri":2678,"Ġmomentos":2679,"ĠFue":2680,"Ġrei":2681,"Ġcatal":2682,"ecn":2683,"Ġturi":2684,"Ġmejores":2685,"Ġresultados":2686,"Ġserie":2687,"Ġedad":2688,"Ġmodo":2689,"Ġagu":2690,"Ġentrada":2691,"Ġeli":2692,"gosto":2693,"Ġrealizar":2694,"Ġta":2695,"19":2696,"Ġverano":2697,"Ġcabeza":2698,"Ġmor":2699,"otros":2700,"Ġpueda":2701,"ex":2702,"gre":2703,"ĠpolÃŃtico":2704,"puestos":2705,"Ġderecho":2706,"ensa":2707,"Ġninguna":2708,"ĠhistÃ³r":2709,"ĠETA":2710,"Ġesti":2711,"ular":2712,"Ġtriun":2713,"zÃ¡lez":2714,"gir":2715,"Ġvice":2716,"Ġdeba":2717,"ques":2718,"Ġsalir":2719,"Ġprevisto":2720,"Ġhabitu":2721,"zan":2722,"Ġrecha":2723,"ructu":2724,"Una":2725,"Ġcarre":2726,"ĠComunidad":2727,"eric":2728,"Ġren":2729,"Ġtampoco":2730,"zquier":2731,"Ġalto":2732,"Ġcomunidad":2733,"ajas":2734,"Ġregional":2735,"ĠcrÃŃti":2736,"Ġbase":2737,"ĠCatal":2738,"ĠserÃ¡n":2739,"Ġpueblo":2740,"Ġprueba":2741,"Ġhechos":2742,"ĠsÃ¡bado":2743,"ĠfÃºtbol":2744,"Ġdestin":2745,"ĠRey":2746,"Ġrecuer":2747,"Ġart":2748,"Ġmayores":2749,"Ġalum":2750,"ĠSantander":2751,"Ġsalud":2752,"Ġagosto":2753,"adres":2754,"rup":2755,"Ġprincipio":2756,"Ġperiodo":2757,"Ġmenor":2758,"uniden":2759,"ĠatenciÃ³n":2760,"Ġmitad":2761,"ĠÃ©xito":2762,"char":2763,"toral":2764,"Ġurb":2765,"ĠLu":2766,"ĠeconomÃŃa":2767,"ĠJes":2768,"ĠcaÃŃ":2769,"judi":2770,"Ġlunes":2771,"ĠCos":2772,"ĠCri":2773,"Ġviviendas":2774,"pÃ³":2775,"Ã©rez":2776,"ĠJa":2777,"Ġcentros":2778,"Ġpropuesta":2779,"Ġcompromi":2780,"Ġer":2781,"Ġalta":2782,"ĠSanta":2783,"bu":2784,"Ġw":2785,"Ġiniciativa":2786,"Ġderechos":2787,"ego":2788,"Ġpelig":2789,"eas":2790,"Ġmarzo":2791,"ĠGu":2792,"Ġestudio":2793,"Ġnosotros":2794,"ĠTer":2795,"Ġheri":2796,"ĠJavier":2797,"ciente":2798,"Ġilu":2799,"Ġestadouniden":2800,"Ġcuarto":2801,"Ġobstante":2802,"Ġdenunci":2803,"Ġimpu":2804,"ĠBlan":2805,"mpi":2806,"Ġproyectos":2807,"Ġuso":2808,"Ġderro":2809,"Ã¡tico":2810,"rad":2811,"Ġmodelo":2812,"all":2813,"ĠTorre":2814,"chi":2815,"Ġcomien":2816,"ĠcompaÃ±ÃŃa":2817,"ancias":2818,"Ġtrabajar":2819,"Ġ23":2820,"Ã¡g":2821,"Ġmul":2822,"cionados":2823,"rimonio":2824,"Ġprincipales":2825,"Ġfacili":2826,"Ġpopular":2827,"cra":2828,"Ġdipu":2829,"Ġabo":2830,"gia":2831,"ĠGonzÃ¡lez":2832,"dero":2833,"cina":2834,"ĠPi":2835,"Ġpudo":2836,"Ġsindica":2837,"Ġdisp":2838,"demos":2839,"ĠautonÃ³m":2840,"gencia":2841,"Ġimagen":2842,"Ġinterior":2843,"dÃ³":2844,"antil":2845,"omin":2846,"50":2847,"chez":2848,"ell":2849,"ĠpolÃŃticos":2850,"Ġiba":2851,"Ġlaboral":2852,"ĠhabrÃ¡":2853,"Ġcamino":2854,"Ã¼":2855,"form":2856,"Ġfra":2857,"Ġobten":2858,"gencias":2859,"preside":2860,"Ġcentral":2861,"ĠGeneral":2862,"Ġacci":2863,"AsÃŃ":2864,"Ġprecios":2865,"porte":2866,"ĠahÃŃ":2867,"adio":2868,"Ġnoti":2869,"omas":2870,"Ġperiodi":2871,"Ġocup":2872,"Ġfuerte":2873,"Ġpalabras":2874,"ĠCal":2875,"mara":2876,"brero":2877,"Ġpadre":2878,"Ġcategor":2879,"Ġeran":2880,"Ġmilitar":2881,"Ġacep":2882,"ĠTe":2883,"uncia":2884,"Ġnueve":2885,"Ġtercer":2886,"Ġdeclaraciones":2887,"Ġsani":2888,"Ġmas":2889,"Ġnove":2890,"Ġnum":2891,"Ġplant":2892,"raron":2893,"ĠPÃ©rez":2894,"Ġestuvo":2895,"Ġpremio":2896,"ĠtrÃ¡fico":2897,"aridad":2898,"Ġcapacidad":2899,"Ġmanten":2900,"Ġsex":2901,"Ġoficial":2902,"Ġol":2903,"Ġincor":2904,"Ã¡nchez":2905,"Ġsigni":2906,"Ġgri":2907,"ĠUniversidad":2908,"ĠAsociaciÃ³n":2909,"Ġsociales":2910,"tecciÃ³n":2911,"Tras":2912,"jar":2913,"Ġhijos":2914,"Ġesas":2915,"ĠafirmÃ³":2916,"ĠinterÃ©s":2917,"Ġnecesidad":2918,"rue":2919,"Ġencima":2920,"ĠcolaboraciÃ³n":2921,"tri":2922,"Ġtre":2923,"Ġpese":2924,"Ġinfra":2925,"ĠaÃ±adi":2926,"bilidades":2927,"ĠVe":2928,"Ġmunicipales":2929,"Ġenten":2930,"Ġcoinci":2931,"estre":2932,"Ġclasi":2933,"idos":2934,"Ġedificio":2935,"ĠÃºnica":2936,"Ġentidad":2937,"Ġener":2938,"idades":2939,"ÃŃamos":2940,"ĠComuni":2941,"Ġlibertad":2942,"Ġpudi":2943,"Ġcap":2944,"Ġlegis":2945,"Lo":2946,"Ġhici":2947,"Ġfamilias":2948,"Ġapoy":2949,"Ġfoto":2950,"rer":2951,"Ġcierto":2952,"Ġdetal":2953,"Ġagra":2954,"Ġzonas":2955,"Este":2956,"Ġ2006":2957,"ĠTra":2958,"Ġasegurado":2959,"Ġproductos":2960,"mica":2961,"uÃ±a":2962,"Ġbenefici":2963,"ĠAdminist":2964,"ĠMundial":2965,"taba":2966,"Ġviene":2967,"Ġejerci":2968,"ire":2969,"ĠcreaciÃ³n":2970,"Ġrue":2971,"Ġsiglo":2972,"alidades":2973,"ĠUniÃ³n":2974,"Ġdebido":2975,"ches":2976,"Ġvuelta":2977,"ĠocasiÃ³n":2978,"Ġvicepreside":2979,"ĠcomunicaciÃ³n":2980,"Ġcontemp":2981,"ĠopiniÃ³n":2982,"ĠoposiciÃ³n":2983,"Ġexplicado":2984,"erro":2985,"ĠEdu":2986,"Ġayud":2987,"int":2988,"Ġsec":2989,"Ġgui":2990,"Ġapenas":2991,"Ġestra":2992,"Ġfundam":2993,"Ġnecesario":2994,"Ġacceso":2995,"ĠValenciana":2996,"cionado":2997,"ĠBa":2998,"Ġmucha":2999,"ĠvÃŃctimas":3000,"Ġrevi":3001,"Ġanim":3002,"ĠSÃ¡nchez":3003,"Ġaumento":3004,"ĠJusticia":3005,"Ġregres":3006,"Ġenfrent":3007,"Ġmadre":3008,"ĠtÃ©r":3009,"Ġdem":3010,"Ġsuce":3011,"radas":3012,"ciaciones":3013,"ĠinversiÃ³n":3014,"Ġelabor":3015,"eren":3016,"Ġ,":3017,"Ġdemo":3018,"ubo":3019,"ĠLey":3020,"Ġprotagon":3021,"Ġvolunt":3022,"ĠvehÃŃculos":3023,"cete":3024,"ĠoperaciÃ³n":3025,"Ġfinales":3026,"bal":3027,"Ġriesgo":3028,"ĠeconÃ³mico":3029,"ĠpÃºblicos":3030,"ĠparticipaciÃ³n":3031,"Ġbom":3032,"ĠdestacÃ³":3033,"ĠseÃ±alado":3034,"ĠAudi":3035,"ĠCentro":3036,"Ġfecha":3037,"ĠJesÃºs":3038,"Ġsocialistas":3039,"ĠtÃŃtulo":3040,"tales":3041,"Ġfiscal":3042,"ecen":3043,"Ã³nica":3044,"echo":3045,"lament":3046,"Ġadqui":3047,"ficiente":3048,"zaciones":3049,"Ġdemostr":3050,"alaciones":3051,"Ġencontrar":3052,"ĠComunitat":3053,"Ġpuestos":3054,"ĠÃ¡rea":3055,"pren":3056,"Ġopera":3057,"Ġbanda":3058,"migra":3059,"tancia":3060,"Ġmotivo":3061,"Ġnumeros":3062,"ĠÃºltimas":3063,"Ġimportantes":3064,"Ġvivienda":3065,"Ġmanos":3066,"Ġmuestra":3067,"Ġlibre":3068,"Ġpasada":3069,"Ġactuaciones":3070,"Ġprofes":3071,"Ġautoridades":3072,"ernet":3073,"uls":3074,"Ġargu":3075,"ĠCongreso":3076,"ĠMartÃŃnez":3077,"gent":3078,"Ġpint":3079,"Ġespecialmente":3080,"ĠallÃŃ":3081,"Ġluz":3082,"ĠMer":3083,"guridad":3084,"Ġinteg":3085,"Ġdeben":3086,"bacete":3087,"ĠtelevisiÃ³n":3088,"osos":3089,"Ġhombres":3090,"ĠautÃ³n":3091,"Ġhacen":3092,"Ġahor":3093,"Ġfebrero":3094,"Ġjuz":3095,"Ġadministra":3096,"Ġsum":3097,"Ġviolencia":3098,"Cu":3099,"zaron":3100,"Ġabril":3101,"ĠFrancia":3102,"Ã¡r":3103,"Ġresponsables":3104,"gro":3105,"iendo":3106,"Ġinstalaciones":3107,"Ġidea":3108,"camente":3109,"Ġdescenso":3110,"10":3111,"cidos":3112,"onos":3113,"Ġvista":3114,"rando":3115,"ira":3116,"ÃŃstico":3117,"ĠrecordÃ³":3118,"Ġ100":3119,"Ġhablar":3120,"ĠtÃ©rmin":3121,"Ġpasa":3122,"Ġrealizado":3123,"Ġamena":3124,"ĠPat":3125,"Ġdescar":3126,"ĠHer":3127,"ĠMari":3128,"alla":3129,"Ġusu":3130,"Ġperi":3131,"TambiÃ©n":3132,"Ġtecn":3133,"Ġinme":3134,"Ġpreci":3135,"Ġpuedan":3136,"Ġsentencia":3137,"Ġcausa":3138,"ĠGi":3139,"Ġcalles":3140,"alitat":3141,"Ġsede":3142,"Ġconsigui":3143,"seo":3144,"Ġon":3145,"ile":3146,"Ġub":3147,"Esta":3148,"Ġpatr":3149,"ĠLiga":3150,"Ġcic":3151,"II":3152,"Ġjur":3153,"puestas":3154,"ntos":3155,"Ġdescon":3156,"ĠrÃ¡":3157,"Ġizquier":3158,"lid":3159,"arca":3160,"Ġllegada":3161,"Ġcifra":3162,"To":3163,"ĠGeneralitat":3164,"Ġduda":3165,"reg":3166,"Ġnatural":3167,"ĠTribunal":3168,"alo":3169,"vant":3170,"ĠpelÃŃcula":3171,"Ġinau":3172,"Ġcrecimiento":3173,"uales":3174,"ĠPartido":3175,"ĠregiÃ³n":3176,"ĠCultura":3177,"Ġcoche":3178,"Ġencontra":3179,"ladolid":3180,"Ġconfianza":3181,"Sin":3182,"tencia":3183,"Ġpuso":3184,"ĠDesde":3185,"giÃ³":3186,"glesia":3187,"ka":3188,"Ġverdad":3189,"Ġbasta":3190,"Ġesp":3191,"edo":3192,"Ġllegado":3193,"ple":3194,"ĠposiciÃ³n":3195,"nas":3196,"Ġgaranti":3197,"Ġinterpre":3198,"Ġpadres":3199,"Ġgrave":3200,"ĠPas":3201,"Ġ60":3202,"Ġnota":3203,"Ġhaciendo":3204,"ĠFernando":3205,"tirÃ¡":3206,"Ġaero":3207,"ĠaÃ±ad":3208,"Ġarte":3209,"ĠrÃ¡pi":3210,"berto":3211,"ĠInstitu":3212,"Ġsabe":3213,"Ġeta":3214,"partam":3215,"ĠDavi":3216,"etro":3217,"ller":3218,"Ġsen":3219,"ĠBer":3220,"ĠComisiÃ³n":3221,"Ġcontrario":3222,"ser":3223,"Ġabsolu":3224,"Ġjueves":3225,"Ġsir":3226,"Ġdific":3227,"cupa":3228,"ÃŃsticas":3229,"cionar":3230,"Ġsaber":3231,"Ġbol":3232,"ĠpolÃŃticas":3233,"Ġvelo":3234,"ĠpodrÃ¡n":3235,"Ġtro":3236,"ĠdejÃ³":3237,"Ġadop":3238,"Ġconcent":3239,"lamento":3240,"ps":3241,"Ġestaban":3242,"ardo":3243,"ĠvÃŃa":3244,"lle":3245,"ĠRegiÃ³n":3246,"Ġcontrib":3247,"Ġpagar":3248,"Desde":3249,"quiera":3250,"Ġrecursos":3251,"ĠNi":3252,"Ã³di":3253,"Ġconsejero":3254,"ĠAu":3255,"estiv":3256,"ĠHay":3257,"Ġprofesionales":3258,"Ġrespuesta":3259,"ĠSoci":3260,"desa":3261,"ĠprÃ³ximos":3262,"ĠSol":3263,"Ġelimin":3264,"ĠÃ³r":3265,"Ġparo":3266,"Ġaspec":3267,"Ġconsumo":3268,"Ġbaja":3269,"Ġventa":3270,"Ġfase":3271,"ion":3272,"Ġpan":3273,"Ġ27":3274,"ĠCiudad":3275,"sturi":3276,"Ġsuel":3277,"etas":3278,"Ġhospital":3279,"ĠÃ©po":3280,"Ġcantidad":3281,"Ġtercera":3282,"alizado":3283,"jerÃŃa":3284,"ond":3285,"esto":3286,"gna":3287,"caba":3288,"Ġdiario":3289,"ĠindicÃ³":3290,"Ġolvi":3291,"ĠRam":3292,"Ġmens":3293,"tin":3294,"Ġextran":3295,"Ġce":3296,"ĠAhora":3297,"Ġ28":3298,"Ġinforma":3299,"Ġgen":3300,"Ġgust":3301,"mÃ¡":3302,"oro":3303,"ĠdÃ©c":3304,"Ġproces":3305,"ĠcomenzÃ³":3306,"Ġlar":3307,"Ġsatis":3308,"ĠintervenciÃ³n":3309,"200":3310,"gentes":3311,"ĠCaja":3312,"Ġhijo":3313,"reo":3314,"ĠValladolid":3315,"cientes":3316,"Ġcome":3317,"Ġmarca":3318,"dimiento":3319,"Ġmodi":3320,"caron":3321,"tarse":3322,"Ġubic":3323,"Ġllega":3324,"ĠEE":3325,"ĠPer":3326,"Ġexperiencia":3327,"Ġincremento":3328,"onia":3329,"vers":3330,"Ġmantiene":3331,"ĠCastell":3332,"Ġcambios":3333,"Ġentor":3334,"ĠestarÃ¡":3335,"Ġcomunidades":3336,"onato":3337,"Ġinformado":3338,"ĠDipu":3339,"arÃ¡cter":3340,"Ġescol":3341,"ĠbritÃ¡n":3342,"ade":3343,"ĠespectÃ¡":3344,"hibi":3345,"ĠpÃ¡g":3346,"ĠSeguridad":3347,"ĠPala":3348,"ĠfÃŃs":3349,"estas":3350,"Ġresponsabilidad":3351,"Ġimportancia":3352,"Ġmejorar":3353,"Ġos":3354,"ĠaÃ±adiÃ³":3355,"Ġalt":3356,"ĠTras":3357,"Ġpeor":3358,"Ġcita":3359,"Ġlec":3360,"ĠAm":3361,"ĠpodrÃ¡":3362,"Ġjudicial":3363,"Ġcuyo":3364,"Ġcosa":3365,"id":3366,"Ġdescu":3367,"Ha":3368,"Ġprimeras":3369,"Ġesca":3370,"Ġimpuest":3371,"Ġsuelo":3372,"Ġlimi":3373,"Ã¡tica":3374,"Ġdebate":3375,"titud":3376,"Ġcomplic":3377,"Ġpleno":3378,"Ġoferta":3379,"Ġcompromiso":3380,"arra":3381,"ĠcarÃ¡cter":3382,"Ġmadri":3383,"ĠPrim":3384,"Ġcriti":3385,"Ġpresupuesto":3386,"Ġhuel":3387,"Ġdoble":3388,"Ġano":3389,"Ġlevant":3390,"masi":3391,"ructuras":3392,"Ġ26":3393,"Ġgasto":3394,"lici":3395,"ĠpodÃŃa":3396,"Ġoportunidad":3397,"ĠSocial":3398,"Ġcuya":3399,"ĠQui":3400,"Ġconstr":3401,"Ġincorpor":3402,"Ġguerra":3403,"chas":3404,"Ġescenario":3405,"Ġnorma":3406,"Ġtorno":3407,"Ġperder":3408,"Ġvari":3409,"ĠRafa":3410,"cida":3411,"Ġreal":3412,"Ġlista":3413,"Ġesfuerzo":3414,"Ġinmigra":3415,"iago":3416,"Ġaso":3417,"ernos":3418,"Ġpresente":3419,"Ġdeuda":3420,"ĠCataluÃ±a":3421,"ĠÃ¡mbi":3422,"Ġentrenador":3423,"usi":3424,"Ġconsul":3425,"Ġpermite":3426,"Ġenvi":3427,"Ġtengo":3428,"mano":3429,"Ġtrabajos":3430,"Ġlucha":3431,"Ã¡ndose":3432,"bia":3433,"Ġcrear":3434,"Ġtiempos":3435,"ĠsÃ©":3436,"undaciÃ³n":3437,"Ġ198":3438,"cÃ©s":3439,"Ġdemanda":3440,"Ġcuerpo":3441,"ĠselecciÃ³n":3442,"cimientos":3443,"Ġsimi":3444,"ĠCol":3445,"Ġsuperior":3446,"zados":3447,"ĠAt":3448,"Ġrival":3449,"ĠÃ©ste":3450,"ĠFer":3451,"dedor":3452,"Ġtomar":3453,"Ġcreo":3454,"ĠNavar":3455,"Ġcircun":3456,"Ġcapi":3457,"ĠcategorÃŃa":3458,"Ġreferencia":3459,"Ġtierra":3460,"ĠComo":3461,"grafÃŃa":3462,"Ġpilo":3463,"mania":3464,"Ġmad":3465,"Ġfru":3466,"ajoy":3467,"Ġexiste":3468,"adamente":3469,"sist":3470,"ĠEcon":3471,"ĠBal":3472,"Ġamigos":3473,"ĠVill":3474,"ĠanunciÃ³":3475,"Ġdespe":3476,"atas":3477,"Ġinsisti":3478,"Ġimplic":3479,"adal":3480,"Ġpruebas":3481,"Ġaerop":3482,"Ġmediante":3483,"jado":3484,"Ġlament":3485,"coles":3486,"ĠEuropea":3487,"ructura":3488,"Ġrepresentantes":3489,"Ġaquellos":3490,"dap":3491,"eja":3492,"Ġfuerza":3493,"Ġfinalmente":3494,"ĠseÃ±ala":3495,"Ġpuerta":3496,"Ġdelito":3497,"onda":3498,"Ġdespla":3499,"ĠDavid":3500,"Ġem":3501,"Ġindepen":3502,"ĠfÃ¡cil":3503,"Ġsupuesto":3504,"Ġprob":3505,"Ġafirma":3506,"ĠAdministraciÃ³n":3507,"Ġlibro":3508,"Ġhubiera":3509,"Ġmenores":3510,"ĠInterna":3511,"Ġcurso":3512,"Ġpunt":3513,"Ġencuentran":3514,"Ã©rcoles":3515,"aliza":3516,"gaciones":3517,"mentaciÃ³n":3518,"Ġaz":3519,"Ġhubo":3520,"Ġpeti":3521,"Ġemo":3522,"gin":3523,"Ġmag":3524,"Ġdemasi":3525,"Ġcoordin":3526,"Ġpresentado":3527,"Ġitali":3528,"anidad":3529,"Ġsuspen":3530,"dena":3531,"ĠintenciÃ³n":3532,"didas":3533,"ĠprÃ³xima":3534,"Ġentrevi":3535,"Ġperfec":3536,"Ġadap":3537,"ĠdÃ³":3538,"ĠConsell":3539,"arlo":3540,"orio":3541,"Ġnuestros":3542,"ĠLor":3543,"Ġexper":3544,"Ġmateria":3545,"Ġplantilla":3546,"partamento":3547,"500":3548,"Ġentorno":3549,"lidad":3550,"ĠNueva":3551,"Ġparticipa":3552,"Ġsean":3553,"Ġcho":3554,"uerte":3555,"Ġantigu":3556,"Ġentidades":3557,"Ġofrecer":3558,"rica":3559,"ĠAlonso":3560,"Ġrecibido":3561,"ĠCl":3562,"Ġmartes":3563,"Ġestadounidense":3564,"Ġweb":3565,"ers":3566,"olver":3567,"ormente":3568,"Ġcree":3569,"ĠproducciÃ³n":3570,"ice":3571,"Ġremo":3572,"ĠmiÃ©rcoles":3573,"drÃŃa":3574,"Ġprotes":3575,"Me":3576,"Ġadelant":3577,"Ġinicio":3578,"Ġbor":3579,"Ġfamiliares":3580,"tida":3581,"Ġ29":3582,"fil":3583,"ĠBi":3584,"Ġ31":3585,"ense":3586,"ĠHos":3587,"Ġreli":3588,"Ġterre":3589,"bern":3590,"cando":3591,"ĠCab":3592,"ĠprisiÃ³n":3593,"Ġpodido":3594,"Ġandalu":3595,"ĠÃ©poca":3596,"Ġinfraest":3597,"Ġrecuerda":3598,"ĠAunque":3599,"Ġentrar":3600,"Ġsiguiente":3601,"ĠYo":3602,"Ġreciente":3603,"Ġintegra":3604,"yas":3605,"ĠAlbacete":3606,"ĠquedÃ³":3607,"estival":3608,"Ġimpres":3609,"Ġmont":3610,"Ġdescan":3611,"Ġtitular":3612,"Ġfondo":3613,"cano":3614,"Ġtesti":3615,"Ġreac":3616,"Ġalumnos":3617,"tagen":3618,"Ġdejado":3619,"VE":3620,"ĠFundaciÃ³n":3621,"Ġetapa":3622,"ĠRos":3623,"Ġcontar":3624,"Ã¡ndo":3625,"Ġayudas":3626,"Ġejercicio":3627,"viles":3628,"cepciÃ³n":3629,"ĠasociaciÃ³n":3630,"ĠBel":3631,"Ã©nt":3632,"Ġtema":3633,"ĠcompaÃ±eros":3634,"ry":3635,"Ġasunto":3636,"dados":3637,"Ġbueno":3638,"Ġdura":3639,"Ġsubida":3640,"Ġvas":3641,"Ġelev":3642,"ĠEntre":3643,"Ġprote":3644,"ĠSantiago":3645,"Mi":3646,"Ġsala":3647,"pular":3648,"Ġbarrio":3649,"ĠMedio":3650,"cador":3651,"Ġtel":3652,"ĠCru":3653,"Ġpolici":3654,"ĠAudiencia":3655,"ĠexposiciÃ³n":3656,"ĠInstituto":3657,"deo":3658,"Ġrelaciones":3659,"Ġindustri":3660,"Ġsatisf":3661,".,":3662,"tarios":3663,"Ġconcurso":3664,"Ġdesi":3665,"Ġretras":3666,"Ġrecom":3667,"ĠEspaÃ±":3668,"quitec":3669,"Ġmanda":3670,"Ġbuscar":3671,"cam":3672,"Ġenferme":3673,"ctores":3674,"ĠvehÃŃculo":3675,"Ġpareja":3676,"mÃ¡n":3677,"omento":3678,"Ġprofesional":3679,"Ġataque":3680,"ĠmostrÃ³":3681,"Ġadelante":3682,"ĠVasco":3683,"Ġfutbol":3684,"Ġsignifica":3685,"Ġrecibir":3686,"Ġmur":3687,"Ġpretende":3688,"rtiÃ³":3689,"Ġamor":3690,"Ġelem":3691,"Ġmusic":3692,"ĠVer":3693,"Ġdistrib":3694,"Ġdiferencia":3695,"mpleo":3696,"reas":3697,"Ġpocos":3698,"Ġsorpren":3699,"ĠcaÃŃda":3700,"ÃŃfic":3701,"Ġadvi":3702,"ĠConsejerÃŃa":3703,"tidos":3704,"Ġcoste":3705,"Ġfiesta":3706,"Ġdic":3707,"Ġpron":3708,"ĠcÃ¡r":3709,"Ġcolectivo":3710,"orge":3711,"Ġmundial":3712,"ĠRajoy":3713,"Ġvelocidad":3714,"Ġviaje":3715,"ĠpresentaciÃ³n":3716,"Ġidenti":3717,"yos":3718,"ĠUE":3719,"Ġclientes":3720,"Ġlograr":3721,"her":3722,"didos":3723,"genes":3724,"Ġorigen":3725,"Ġrueda":3726,"Ġconsecuencia":3727,"ĠCuando":3728,"Ġdispar":3729,"rique":3730,"ĠBen":3731,"zca":3732,"ĠGo":3733,"Ġconvertir":3734,"Ġconcreto":3735,"Ġperdido":3736,"Ġ80":3737,"capa":3738,"ĠdÃ³lares":3739,"Ġdelante":3740,"Ġtriunfo":3741,"Ġoper":3742,"uiz":3743,"Ġfigura":3744,"ĠLocal":3745,"ĠAra":3746,"ĠpÃºblicas":3747,"ĠcuestiÃ³n":3748,"Ã¡li":3749,"ĠSevilla":3750,"Ġdistintas":3751,"Ġhon":3752,"tio":3753,"Ġdan":3754,"rupo":3755,"Ġinstituciones":3756,"tico":3757,"Ġpuesta":3758,"Ã©tico":3759,"Ġvamos":3760,"Ġexten":3761,"str":3762,"inal":3763,"Ġconsumi":3764,"Ġparlament":3765,"ĠfrancÃ©s":3766,"Ġelectoral":3767,"ĠrecuperaciÃ³n":3768,"Ġcierre":3769,"leg":3770,"Ġnacion":3771,"ĠMon":3772,"Ġacce":3773,"ĠAlemania":3774,"Ġusuarios":3775,"Ġagre":3776,"udades":3777,"Ġconstitu":3778,"mite":3779,"pira":3780,"ĠCasa":3781,"ĠpÃ©r":3782,"Ġatent":3783,"ĠObama":3784,"Ġtasa":3785,"Ġjusti":3786,"Ġalre":3787,"Ġconflic":3788,"ĠMont":3789,"rin":3790,"ĠMas":3791,"Ġcultura":3792,"Ġexpe":3793,"Ġsindicatos":3794,"ĠFiscal":3795,"terior":3796,"Ġnie":3797,"ĠCopa":3798,"ĠfinanciaciÃ³n":3799,"Ġagrade":3800,"ĠPue":3801,"Ġcorri":3802,"Ġfuerzas":3803,"onado":3804,"Ġtranqui":3805,"ĠpequeÃ±o":3806,"Ġcultural":3807,"Ġpodemos":3808,"ĠhabrÃŃa":3809,"Ġempresarios":3810,"Ġanteriores":3811,"Ġalterna":3812,"vidu":3813,"Ġagres":3814,"pol":3815,"ude":3816,"Ġparticipar":3817,"Ġextre":3818,"Ġcarretera":3819,"Ġactos":3820,"Ġapos":3821,"Ġpuertas":3822,"Ġcircunst":3823,"Ġmari":3824,"Ġtrim":3825,"Ġapren":3826,"ficÃ³":3827,"AR":3828,"ES":3829,"ĠacciÃ³n":3830,"Ġhacerlo":3831,"itÃ©":3832,"ĠInternacional":3833,"ĠVicente":3834,"Ġmadrile":3835,"Ġbastante":3836,"Ġpopulares":3837,"ts":3838,"Ġmon":3839,"Ġpase":3840,"Ġpedir":3841,"Ġafectados":3842,"ate":3843,"forma":3844,"sor":3845,"Ġciudades":3846,"Ġalcanzar":3847,"Ġsacar":3848,"Ġcami":3849,"ĠServi":3850,"tagena":3851,"ecÃŃa":3852,"Ġexclu":3853,"Ġrefi":3854,"Ġedil":3855,"Ġ2005":3856,"Ġmismos":3857,"Ġadecu":3858,"ntab":3859,"Ġconten":3860,"Ġmunicipios":3861,"Ġconseguido":3862,"ĠperiÃ³di":3863,"Ġaju":3864,"ĠcompeticiÃ³n":3865,"Ġvio":3866,"Ã©rica":3867,"bri":3868,"Ġindividu":3869,"Ġhuelga":3870,"ĠpolicÃŃa":3871,"ĠbalÃ³n":3872,"Ġdoce":3873,"Ġsust":3874,"Ġminuto":3875,"Ġ70":3876,"Ġtren":3877,"Ġblo":3878,"ĠGa":3879,"ĠdeclaraciÃ³n":3880,"talia":3881,"ĠParlamento":3882,"ĠQue":3883,"Ġdistintos":3884,"Ġdro":3885,"erte":3886,"Ġpartes":3887,"Ġhabitual":3888,"AS":3889,"illo":3890,"Ġgolpe":3891,"Ġcompra":3892,"Ġpropiet":3893,"ĠFederaciÃ³n":3894,"ricul":3895,"Ġrecorrido":3896,"ĠallÃ¡":3897,"ĠNe":3898,"Ġarro":3899,"Ġmejora":3900,"Ġdenuncia":3901,"Ġdocumento":3902,"Ġasumi":3903,"Ġ35":3904,"Ġingresos":3905,"Ġpresentar":3906,"ork":3907,"Ġllevado":3908,"Ġmanteni":3909,"cales":3910,"siva":3911,"Ġactualidad":3912,"dencias":3913,"Ġpreocup":3914,"Ġquieren":3915,"Ġcontrato":3916,"ĠapuntÃ³":3917,"ĠmÃ³":3918,"esiones":3919,"guien":3920,"Ġconvertido":3921,"Ġambas":3922,"ertos":3923,"teni":3924,"Ġgusta":3925,"Ġescal":3926,"Ġacciones":3927,"ĠvolviÃ³":3928,"Ġlegisla":3929,"uÃ©":3930,"Ã³mez":3931,"Ġizquierda":3932,"Ġreducir":3933,"Ġinmedia":3934,"Ġsiguen":3935,"cuent":3936,"ĠEso":3937,"ĠPÃºbl":3938,"cta":3939,"cito":3940,"Ã¡lo":3941,"Ġaus":3942,"Ġdu":3943,"ĠInternet":3944,"Ġfront":3945,"Ġadjudi":3946,"Ġfiestas":3947,"ĠÃģl":3948,"Ġbel":3949,"ĠtendrÃ¡n":3950,"Ġcumplir":3951,"stico":3952,"ilar":3953,"Ġplazas":3954,"ĠFi":3955,"ĠInterior":3956,"Ġdisfrutar":3957,"dÃ³n":3958,"Ġrenov":3959,"od":3960,"Ġmil":3961,"Ġdecidido":3962,"jeros":3963,"Ġporcent":3964,"ĠCartagena":3965,"Ġofrece":3966,"Ġanunciado":3967,"zando":3968,"Ġsuerte":3969,"Ġplata":3970,"Entre":3971,"caso":3972,"gÃ³n":3973,"Ġido":3974,"ĠcelebraciÃ³n":3975,"Ġimposi":3976,"Ġcenten":3977,"Ġmismas":3978,"turales":3979,"mbre":3980,"ĠdemÃ¡s":3981,"ĠOri":3982,"Ġraz":3983,"ĠDiputaciÃ³n":3984,"Ġsuficiente":3985,"ĠPen":3986,"15":3987,"ĠCosta":3988,"deros":3989,"plic":3990,"Ġincrement":3991,"Ġtradicional":3992,"dÃŃan":3993,"han":3994,"Ġabierto":3995,"muy":3996,"Ġdomi":3997,"ĠinformÃ³":3998,"Ġnega":3999,"Ġcui":4000,"Ġorig":4001,"Ġdesapar":4002,"terrÃ¡n":4003,"Ġmesa":4004,"Ġcandidato":4005,"Ã©tica":4006,"uta":4007,"tica":4008,"Ġministra":4009,"Ġtenga":4010,"Ġintereses":4011,"Ġinstru":4012,"Ġincluye":4013,"Ġnub":4014,"Ġtrabajando":4015,"dent":4016,"gios":4017,"Ã§":4018,"Ġcamp":4019,"Ġrele":4020,"ĠmÃ©dico":4021,"CI":4022,"ĠNavidad":4023,"ÃŃdo":4024,"Ġquedado":4025,"ĠpequeÃ±os":4026,"Ġdetenido":4027,"ĠprotecciÃ³n":4028,"Ã©ctr":4029,"Como":4030,"Ġnu":4031,"americ":4032,"Ġarran":4033,"olog":4034,"Ġof":4035,"Ġcifras":4036,"ĠpresentÃ³":4037,"ĠespectÃ¡culo":4038,"ĠConstitu":4039,"Ġorgan":4040,"ĠPortu":4041,"Ġrefer":4042,"Ġprincipios":4043,"ĠDo":4044,"Ġleg":4045,"Ġprodujo":4046,"ĠrecibiÃ³":4047,"Ġteatro":4048,"ĠadministraciÃ³n":4049,"ĠvÃŃctima":4050,"Ġdestacado":4051,"anda":4052,"Ġreti":4053,"ĠÃ¡mbito":4054,"dro":4055,"Ġhotel":4056,"Ġestoy":4057,"12":4058,"ĠatrÃ¡s":4059,"Ġprogram":4060,"GT":4061,"Ġdecre":4062,"Ġfirma":4063,"Ġhabla":4064,"Ġcambiar":4065,"ĠGrupo":4066,"ĠTele":4067,"ĠON":4068,"cesi":4069,"ĠsoluciÃ³n":4070,"Ġinm":4071,"stit":4072,"Ġpone":4073,"ĠGal":4074,"Ġtexto":4075,"Ġmiles":4076,"Ġcuentas":4077,"ĠHospital":4078,"Ġpedido":4079,"gran":4080,"ner":4081,"Ġesperar":4082,"ĠtrÃ¡":4083,"Ġacum":4084,"ĠRub":4085,"basti":4086,"Ġtorn":4087,"ĠcomÃºn":4088,"Ġoblig":4089,"ĠGÃ³mez":4090,"Ġtantos":4091,"Ġonce":4092,"Ġprev":4093,"Ġarm":4094,"Ġinfantil":4095,"40":4096,"ezas":4097,"ĠdisposiciÃ³n":4098,"Ġaire":4099,"vales":4100,"ĠcomisiÃ³n":4101,"ĠMal":4102,"Ġartista":4103,"ĠBe":4104,"Ġconserv":4105,"Ġintentar":4106,"Ġterritorio":4107,"caciones":4108,"ĠCruz":4109,"ĠÃģlvar":4110,"Asimismo":4111,"Ġpant":4112,"ines":4113,"ĠTi":4114,"ĠHern":4115,"Ġtuvieron":4116,"entales":4117,"ĠYa":4118,"ĠrazÃ³n":4119,"Ġhicieron":4120,"ĠCastellÃ³n":4121,"Ġpensar":4122,"pech":4123,"rodu":4124,"ĠllevÃ³":4125,"jan":4126,"Ġvin":4127,"Ġarquitec":4128,"Ġambiente":4129,"mia":4130,"ĠdiseÃ±":4131,"ablo":4132,"Ġpoten":4133,"ĠpasÃ³":4134,"xiÃ³n":4135,"culas":4136,"Ġmagist":4137,"Ġdeja":4138,"Ġrit":4139,"ĠMancha":4140,"Ġurban":4141,"Ġinclui":4142,"Ġdenomin":4143,"ĠreducciÃ³n":4144,"und":4145,"Ġnegocio":4146,"diz":4147,"Ġdestaca":4148,"Ġvotos":4149,"Ġpub":4150,"dios":4151,"ĠpidiÃ³":4152,"Ġpista":4153,"ĠPopular":4154,"Ġdisco":4155,"Ġrepe":4156,"ĠaÃ±adido":4157,"ĠDÃŃa":4158,"ĠpodrÃŃan":4159,"Ġseguro":4160,"Ġdelitos":4161,"ĠRafael":4162,"ĠtÃ©cnicos":4163,"Ġestrate":4164,"ĠestÃ©":4165,"Ġvac":4166,"Ġ197":4167,"lia":4168,"ende":4169,"ĠAut":4170,"ĠGre":4171,"ĠMunici":4172,"pla":4173,"Ġrev":4174,"ĠYork":4175,"ĠÃ³":4176,"Ġreca":4177,"Ġaltura":4178,"ĠcÃ¡rcel":4179,"Ġturismo":4180,"ĠharÃ¡":4181,"Ġsit":4182,"Ġpensiones":4183,"Ġexig":4184,"ĠItalia":4185,"venida":4186,"ĠRuiz":4187,"ĠFomento":4188,"ĠDel":4189,"venciÃ³n":4190,"Ġventaja":4191,"Ãł":4192,"Ġllu":4193,"uito":4194,"%),":4195,"Ġtrat":4196,"Ġpeligro":4197,"Ġplanta":4198,"ficit":4199,"ĠCÃ¡mara":4200,"Ġgrande":4201,"tina":4202,"zarÃ¡":4203,"Ġselec":4204,"ultades":4205,"Ã¡logo":4206,"Ã©f":4207,"Ġhabitantes":4208,"Ġvicepresidente":4209,"Ġsolu":4210,"teriormente":4211,"ciar":4212,"Ġcien":4213,"ĠMay":4214,"Ġconocido":4215,"Ġet":4216,"%)":4217,"Ġapre":4218,"ĠSebasti":4219,"Ġterreno":4220,"Ġcat":4221,"ĠpequeÃ±a":4222,"san":4223,"mio":4224,"ĠEducaciÃ³n":4225,"Ġexpl":4226,"Ġ2004":4227,"Ġposibilidades":4228,"Ġsuperfici":4229,"Ġabrir":4230,"Ġdetec":4231,"olÃ³gico":4232,"Ġgobern":4233,"Ġmurci":4234,"Ġalguien":4235,"Ġvivir":4236,"Ġmalague":4237,"aran":4238,"Ġlejos":4239,"Ġtransporte":4240,"anÃŃa":4241,"ĠpolÃ©":4242,"Ġactualmente":4243,"ĠcÃ¡ntab":4244,"ĠdeberÃŃa":4245,"crÃ¡":4246,"bis":4247,"visi":4248,"torias":4249,"ĠlogrÃ³":4250,"Ġefectos":4251,"Ġfir":4252,"Ġdiscurso":4253,"Ġfondos":4254,"ham":4255,"Ġpropuestas":4256,"ĠelÃ©ctr":4257,"inc":4258,"Ġentrega":4259,"Durante":4260,"umen":4261,"Ġaccidente":4262,"rÃŃ":4263,"Ġacusado":4264,"stos":4265,"vic":4266,"Ġimpuls":4267,"ĠÃ³rg":4268,"Ġmercados":4269,"ĠtenÃŃan":4270,"ĠHi":4271,"Ġpresidenta":4272,"Ġpremios":4273,"anizaciÃ³n":4274,"uencias":4275,".Â¿":4276,"Ġintrodu":4277,"tz":4278,"Ġtrayec":4279,"ĠespaÃ±olas":4280,"ĠPaÃŃs":4281,"ĠsaliÃ³":4282,"Ġvalenciano":4283,"Ġclave":4284,"Ġlic":4285,"ĠCe":4286,"Ġaper":4287,"Ġaquel":4288,"Ġpis":4289,"Ġalrededor":4290,"Ġsufri":4291,"Ġcelebrar":4292,"ĠfunciÃ³n":4293,"ke":4294,"tividad":4295,"arial":4296,"ĠrÃ©":4297,"vencia":4298,"Ġposibles":4299,"Ġhogar":4300,"Ġmensaje":4301,"Ġtrimestre":4302,"Ġpago":4303,"Ġfab":4304,"sito":4305,"ĠHo":4306,"ĠSego":4307,"iende":4308,"ĠGas":4309,"ĠcampeÃ³n":4310,"rales":4311,"Ġadver":4312,"Ġcomprome":4313,"ĠartÃŃ":4314,"Ġdemasiado":4315,"ĠAz":4316,"Aunque":4317,"ĠsesiÃ³n":4318,"Ġcompon":4319,"11":4320,"Ġgoles":4321,"ĠaÃ±ade":4322,"Ġestudios":4323,"Ġentender":4324,"Ġpropon":4325,"Ġtratar":4326,"ĠMedi":4327,"Ġparque":4328,"ĠdÃ©ficit":4329,"QuÃ©":4330,"Su":4331,"Ġhipo":4332,"Ġpropios":4333,"Ġcuadrados":4334,"ĠBanco":4335,"Ġpena":4336,"Ġpaz":4337,"Ġindicado":4338,"Ġfrances":4339,"UU":4340,"ĠSon":4341,"ĠbÃ¡s":4342,"atos":4343,"Ġvisitantes":4344,"ĠPlaza":4345,"Ġhija":4346,"Ġextraordin":4347,"Ġalcaldesa":4348,"ĠhacÃŃa":4349,"ĠInter":4350,"Ġescrito":4351,"Ġacord":4352,"Hay":4353,"ĠAmbi":4354,"Ġvigi":4355,"teras":4356,"Ã¡ticos":4357,"Ġsospech":4358,"VA":4359,"ĠBru":4360,"terÃŃa":4361,"Ġbusca":4362,"ĠcuÃ¡":4363,"ĠdeclarÃ³":4364,"ron":4365,"orme":4366,"Ġmadru":4367,"Ġdespi":4368,"Ġpie":4369,"ĠniÃ±o":4370,"Ã³rm":4371,"Ġdelegado":4372,"ER":4373,"Ġpresenta":4374,"Ġafirmado":4375,"pes":4376,"Ġsuperar":4377,"Ġazul":4378,"ĠMen":4379,"ĠCont":4380,"ĠFiscalÃŃa":4381,"dario":4382,"vera":4383,"ĠquiÃ©n":4384,"ĠÃ©sta":4385,"Ġinternacionales":4386,"ĠProvin":4387,"ĠmÃ¡xima":4388,"ÃŃsimo":4389,"laciones":4390,"untamientos":4391,"bir":4392,"ĠBur":4393,"ĠAlberto":4394,"sturias":4395,"ĠEconomÃŃa":4396,"Ġritmo":4397,"ĠRom":4398,"ĠcrÃ©di":4399,"Ġconvenio":4400,"Ġconvoca":4401,"Ġespos":4402,"Ġdestino":4403,"ĠreconociÃ³":4404,"lilla":4405,"Ġ300":4406,"Ġrespeto":4407,"Ġcelebra":4408,"Ġpermitir":4409,"Ġparticular":4410,"Ġgastos":4411,"arma":4412,"Ġrebaj":4413,"Ġapuesta":4414,"tiene":4415,"tieron":4416,"ĠCarmen":4417,"ĠdetrÃ¡s":4418,"alia":4419,"Ġespect":4420,"Ġproducido":4421,"Ġobjetivos":4422,"olina":4423,"Ġresca":4424,"Ġanun":4425,"grÃ¡":4426,"lon":4427,"amin":4428,"Ġmem":4429,"Ġafront":4430,"Ġfamiliar":4431,"Ġcapaz":4432,"Ġexplosi":4433,"jera":4434,"Ġcuant":4435,"ĠeducaciÃ³n":4436,"zadas":4437,"Ġsectores":4438,"ĠconsiguiÃ³":4439,"gimen":4440,"licidad":4441,"ak":4442,"teles":4443,"Ġtemas":4444,"Ġarri":4445,"torial":4446,"Ġ90":4447,"Ġoperaciones":4448,"Ġespacios":4449,"Ġexpertos":4450,"Ġdescanso":4451,"enes":4452,"Ġcomercial":4453,"ĠRamÃ³n":4454,"Ġlen":4455,"Ġfuego":4456,"ĠpeticiÃ³n":4457,"enso":4458,"Ġgana":4459,"Ġnecesita":4460,"Ġcoo":4461,"Ġsorpres":4462,"vamente":4463,"Cuando":4464,"Ġrenta":4465,"Ġnoticia":4466,"Ġefecto":4467,"Ġdipl":4468,"ĠConsist":4469,"Ġsomos":4470,"Ġreconoce":4471,"ĠtelÃ©f":4472,"Ġfum":4473,"Ġcoti":4474,"Ġrespectivamente":4475,"Ġapertura":4476,"Ġcaracter":4477,"Ġinvestig":4478,"ĠRec":4479,"Ġempleados":4480,"gl":4481,"ecido":4482,"ĠDepor":4483,"Ġprecisamente":4484,"inte":4485,"table":4486,"Ġganado":4487,"Ġventas":4488,"Ġconcep":4489,"Ġentra":4490,"Ġjornadas":4491,"alizada":4492,"Ġperiodistas":4493,"ĠGui":4494,"deres":4495,"Ġincen":4496,"Ġpra":4497,"Ġvalores":4498,"Ġtaller":4499,"Ġsubray":4500,"rÃ³n":4501,"Ġjubi":4502,"ĠdecidiÃ³":4503,"Ġdev":4504,"brar":4505,"ĠÃī":4506,"Ġacabar":4507,"Ġaeropuerto":4508,"cieron":4509,"Ġinmigrantes":4510,"ff":4511,"ĠAsimismo":4512,"ĠTuri":4513,"Ġargent":4514,"ĠjurÃŃ":4515,"ĠSegovia":4516,"Ġemer":4517,"ĠDef":4518,"Ġmanifi":4519,"ĠTodo":4520,"Ġmostrado":4521,"Ġpronto":4522,"ulas":4523,"Ġlimpi":4524,"Ġfuncionarios":4525,"ĠmÃ©dicos":4526,"Ġmaterial":4527,"Ġdirecto":4528,"ses":4529,"anca":4530,"Ġ2003":4531,"Ġnecesidades":4532,"Ġinaugur":4533,"Ġalma":4534,"Ġascen":4535,"Ġdefinitiva":4536,"Ġrecuperar":4537,"Ġpuerto":4538,"cienda":4539,"ÃŃm":4540,"CE":4541,"Ġcajas":4542,"frica":4543,"ÃŃos":4544,"tora":4545,"Ġreligi":4546,"manos":4547,"Ã©st":4548,"Ġquiso":4549,"Ġmargen":4550,"ĠPalacio":4551,"Fue":4552,"Ġaudi":4553,"Ġrecordado":4554,"Ġreiter":4555,"Ġsiquiera":4556,"usk":4557,"ĠFin":4558,"Ġpros":4559,"guir":4560,"Ġcub":4561,"Ġrad":4562,"ĠSebastiÃ¡n":4563,"tÃ³n":4564,"ince":4565,"Ġplanes":4566,"ĠAg":4567,"Ġlig":4568,"Ġreivin":4569,"Ġrecurso":4570,"ĠEmp":4571,"Ã©nez":4572,"ĠIglesia":4573,"ĠlÃŃneas":4574,"elo":4575,"ĠopciÃ³n":4576,"Ġexterior":4577,"teriores":4578,"Ġeduca":4579,"Ġdelant":4580,"cci":4581,"imÃ©nez":4582,"rupciÃ³n":4583,"ĠprevÃ©":4584,"tuvo":4585,"pado":4586,"Ġmol":4587,"Ġglo":4588,"Ġcau":4589,"adoras":4590,"ĠpresiÃ³n":4591,"Ġcadena":4592,"Ġhomen":4593,"ĠprÃ³ximas":4594,"Ġuniversi":4595,"Ġpeso":4596,"Ġdeporte":4597,"Ġprome":4598,"Ġ45":4599,"Ġresulta":4600,"CA":4601,"bella":4602,"ĠaÃ©":4603,"estar":4604,"ĠSanidad":4605,"emas":4606,"Ġrestaura":4607,"Ġpronunci":4608,"Ã¡lisis":4609,"Ġlab":4610,"gidos":4611,"ĠEspaÃ±ola":4612,"ĠDire":4613,"ĠAsturias":4614,"Ġcient":4615,"ĠVilla":4616,"Ġdificultades":4617,"cciones":4618,"Ġhue":4619,"Ġreform":4620,"Ġpropor":4621,"Ġrecal":4622,"Ġconcierto":4623,"VI":4624,"ei":4625,"Ġconoce":4626,"pan":4627,"Ġquerido":4628,"uno":4629,"Ġrespal":4630,"Ġprofesor":4631,"adu":4632,"bur":4633,"zco":4634,"ĠGali":4635,"18":4636,"Ġcompren":4637,"Ġsegundos":4638,"are":4639,"Ġtramo":4640,"Ġvoz":4641,"Ġmadrugada":4642,"Ġcomarca":4643,"Ġhayan":4644,"Ġconside":4645,"Ġinfraestructuras":4646,"icant":4647,"Ġacaba":4648,"ĠinstituciÃ³n":4649,"let":4650,"Ġinversiones":4651,"Ġaficionados":4652,"later":4653,"ĠTurismo":4654,"Ġapunta":4655,"Ġverda":4656,"Ġayudar":4657,"Ġmuest":4658,"Ġdefender":4659,"Ġaleg":4660,"Ġbre":4661,"Ġaclar":4662,"ĠTen":4663,"ĠPablo":4664,"ural":4665,"Ġresal":4666,"Ġdecisiones":4667,"teca":4668,"Ġmulti":4669,"erva":4670,"ĠmÃ©":4671,"Ġderrota":4672,"ruecos":4673,"ĠMelilla":4674,"ĠhistÃ³rico":4675,"ĠcrÃŃticas":4676,"ĠMÃ©":4677,"Ġcasti":4678,"Ġmantu":4679,"Ã§a":4680,"ance":4681,"Ġaprobado":4682,"ĠmanifestÃ³":4683,"quÃ©":4684,"Ġcerrar":4685,"ĠPr":4686,"edades":4687,"onel":4688,"geci":4689,"60":4690,"ĠdÃ©ci":4691,"ĠestaciÃ³n":4692,"Ġvive":4693,"âĢĻ":4694,"ĠenergÃŃa":4695,"In":4696,"cilio":4697,"Ġcontacto":4698,"ume":4699,"ÃŃfico":4700,"Ġvesti":4701,"emen":4702,"eciÃ³":4703,"hn":4704,"amble":4705,");":4706,"usiÃ³n":4707,"Ġconces":4708,"Ġatle":4709,"Ġreside":4710,"jeron":4711,"xa":4712,"ben":4713,"Ġcoches":4714,"ĠAmbiente":4715,"Ġprofun":4716,"mÃ¡genes":4717,"Ġllamada":4718,"ĠConsistorio":4719,"ĠclasificaciÃ³n":4720,"Ġconcl":4721,"ĠclÃ¡s":4722,"habili":4723,"Ġnuestras":4724,"Ġprotagoni":4725,"tarÃ¡n":4726,"ĠElche":4727,"Ġcarta":4728,"ĠganÃ³":4729,"Ġbuenos":4730,"Ġactor":4731,"midad":4732,"ĠHacienda":4733,"ĠVir":4734,"Ġtribunal":4735,"Ġapla":4736,"Ġsimilar":4737,"Ġentrevista":4738,"rans":4739,"Ġsolid":4740,"sivo":4741,"Ġlugares":4742,"Ġflo":4743,"ĠevoluciÃ³n":4744,"sible":4745,"Ã©nero":4746,"ĠMarbella":4747,"Ġahorro":4748,"iva":4749,"Ġalicant":4750,"Ġconstru":4751,"Ġexisten":4752,"Ġconocimiento":4753,"ĠBlanco":4754,"sion":4755,"ĠDiego":4756,"Ġestilo":4757,"Ġdepartamento":4758,"ĠSupre":4759,"ĠacabÃ³":4760,"ĠInf":4761,"ĠpÃ¡gina":4762,"Ġperten":4763,"Ġsoy":4764,"Ġdetenidos":4765,"ĠReyes":4766,"Ġrepro":4767,"geni":4768,"Ġfamos":4769,"Ġtengan":4770,"orazÃ³n":4771,"ĠAnd":4772,"Ġderi":4773,"ĠXX":4774,"Ġindustria":4775,"ĠimÃ¡genes":4776,"ĠTom":4777,"lant":4778,"Ġcargos":4779,"Ġconsecu":4780,"ĠProvincial":4781,"sen":4782,"ĠReino":4783,"Ġsenti":4784,"torios":4785,"Ġhabido":4786,"ĠtÃ©rmino":4787,"Ã©ndose":4788,"ĠHasta":4789,"Ġclase":4790,"cracia":4791,"Ġenfermedad":4792,"Ġestrategia":4793,"Ġhomenaje":4794,"Ġobs":4795,"ĠversiÃ³n":4796,"Ġtransmi":4797,"bin":4798,"jÃ³":4799,"Ġrepu":4800,"ritu":4801,"Ġpositivo":4802,"Ġterrorista":4803,"Ġaspectos":4804,"bos":4805,"roquÃŃ":4806,"ĠAna":4807,"renos":4808,"ĠComer":4809,"Ġlogrado":4810,"ĠMunicipal":4811,"Ġrepresentante":4812,"ablemente":4813,"como":4814,"Ġembaj":4815,"ĠinstalaciÃ³n":4816,"NV":4817,"Ġretir":4818,"vante":4819,"quÃŃn":4820,"mes":4821,"rios":4822,"abel":4823,"ondo":4824,"estro":4825,"Ġtorneo":4826,"25":4827,"til":4828,"ĠresoluciÃ³n":4829,"Ġpelo":4830,"ficios":4831,"Ġparecer":4832,"Ġmarco":4833,"Ġparticipantes":4834,"Ġdirigente":4835,"tÃ©":4836,"Ġgi":4837,"Ġcolegio":4838,"ĠcatalÃ¡n":4839,"cadas":4840,"Ġmue":4841,"yen":4842,"Ġenerg":4843,"Ġayuntamientos":4844,"Ġ500":4845,"Ġsepar":4846,"ĠperiÃ³dico":4847,"Ġseguido":4848,"ĠDespuÃ©s":4849,"Ġcasas":4850,"Ġbancos":4851,"Ġfuncionamiento":4852,"Ġprogramas":4853,"Ġduro":4854,"Ġdismin":4855,"Ġrecordar":4856,"Ġimpuestos":4857,"hara":4858,"ĠSar":4859,"ĠIndust":4860,"lÃ³":4861,"Ġmeta":4862,"Ġcolor":4863,"Ġpalabra":4864,"Ġdeclarado":4865,"Ġexperiment":4866,"ĠmarroquÃŃ":4867,"Ġmusical":4868,"quez":4869,"ĠenseÃ±":4870,"Ġportu":4871,"mites":4872,"triz":4873,"merÃŃa":4874,"Ġplaya":4875,"Ġlide":4876,"Ġadi":4877,"Ġquedan":4878,"ĠmÃŃnimo":4879,"ĠdaÃ±os":4880,"Ġeuropeos":4881,"ĠcomentÃ³":4882,"zamiento":4883,"ÃŃr":4884,"Ġremi":4885,"ĠÃ¡r":4886,"Ġesperan":4887,"Ġdise":4888,"Ġempi":4889,"Ġllevan":4890,"ĠFeder":4891,"Ġcastell":4892,"Ġcantante":4893,"Ġsuperficie":4894,"Ġmec":4895,"ĠSil":4896,"Ġllegaron":4897,"Ġproducto":4898,"Ġencontraba":4899,"Ġprohibi":4900,"Ġjusto":4901,"ĠMarruecos":4902,"ĠPalencia":4903,"ĠrÃ©gimen":4904,"Ġadministraciones":4905,"Ġasociaciones":4906,"xico":4907,"entar":4908,"Ġbu":4909,"ĠParÃŃs":4910,"fas":4911,"ĠJorge":4912,"Ġdomicilio":4913,"13":4914,"Ġros":4915,"ĠSus":4916,"Ġmiedo":4917,"Ġveinte":4918,"glÃ©s":4919,"Ġpracti":4920,"ril":4921,"ĠSec":4922,"Ġkilos":4923,"Ġporcentaje":4924,"todo":4925,"ĠSupremo":4926,"Ġacuer":4927,"ĠprÃ¡cticamente":4928,"Ġger":4929,"Ġcosta":4930,"Ġderecha":4931,"Ġautob":4932,"ĠejecuciÃ³n":4933,"tiendo":4934,"Ġdieron":4935,"ĠrealizÃ³":4936,"ĠÂ¡":4937,"Ġdocumentos":4938,"ĠAb":4939,"Ġtrami":4940,"ĠVega":4941,"guen":4942,"Ġmotivos":4943,"ĠUnido":4944,"lave":4945,"Ġabogado":4946,"imo":4947,"ĠrepresentaciÃ³n":4948,"Ġjuzgado":4949,"sieron":4950,"Ġrebo":4951,"ĠDani":4952,"Ġcuales":4953,"ĠEsto":4954,"Ġartistas":4955,"Ġescas":4956,"ĠSalud":4957,"tudes":4958,"oc":4959,"sar":4960,"tismo":4961,"ĠPortugal":4962,"ĠHernÃ¡ndez":4963,"Ã©rcito":4964,"acciÃ³n":4965,"ĠdÃ©cada":4966,"Ġtab":4967,"Ġbra":4968,"culaciÃ³n":4969,"Ġexplo":4970,"ĠpelÃŃculas":4971,"Ġmilitares":4972,"icha":4973,"Ġdivi":4974,"reras":4975,"terrÃ¡neo":4976,"Po":4977,"amento":4978,"Ġrema":4979,"Ġnavi":4980,"ĠJuz":4981,"ĠPuerto":4982,"ĠempezÃ³":4983,"Ġconstruir":4984,"Ġaproxi":4985,"Ġvoluntad":4986,"inales":4987,"ĠCC":4988,"ĠHe":4989,"Ġgarantizar":4990,"Ġactitud":4991,"45":4992,"Ġvacaciones":4993,"ficaciones":4994,"Ġregistrado":4995,"deras":4996,"zz":4997,"ĠRes":4998,"Ġvir":4999,"gust":5000,"ĠZam":5001,"EN":5002,"gica":5003,"Ġdudas":5004,"Ġhacerse":5005,"Ġtratamiento":5006,"Ġfig":5007,"Ġhaga":5008,"Ġ32":5009,"Ġbuenas":5010,"entas":5011,"Ġexcel":5012,"Ġfuertes":5013,"ĠnegociaciÃ³n":5014,"Ġfich":5015,"ĠChina":5016,"ĠPremio":5017,"ĠsubrayÃ³":5018,"damente":5019,"ĠSÃ³lo":5020,"ĠBil":5021,"Ġgraves":5022,"Ġnormal":5023,"onÃŃa":5024,"istÃ¡n":5025,"ĠeconÃ³micos":5026,"Ġpatrimonio":5027,"Ġhonor":5028,"Ġreconocimiento":5029,"Ġconflicto":5030,"Ġfis":5031,"Ġ33":5032,"ĠZara":5033,"ensaciÃ³n":5034,"Ġaguas":5035,"Ġpenal":5036,"ĠâĢĺ":5037,"ĠaplicaciÃ³n":5038,"uso":5039,"puso":5040,"Ġalguno":5041,"âĢĿ.":5042,"Ġbloque":5043,"Ġret":5044,"Ġdiscu":5045,"Ġcuestiones":5046,"Ġimposible":5047,"ĠGalicia":5048,"ĠHol":5049,"bert":5050,"ĠBern":5051,"atar":5052,"Ġasistencia":5053,"Ġcandidatura":5054,"Ġacceder":5055,"jes":5056,"Ġvino":5057,"Ġpeligros":5058,"Ġrefor":5059,"Ġeuropea":5060,"Ã³rmula":5061,"ĠanÃ¡lisis":5062,"Ġindica":5063,"ĠpermitirÃ¡":5064,"Ġhumanos":5065,"Ġblanco":5066,"Ġdiputado":5067,"liz":5068,"Ġascenso":5069,"ĠBarÃ§a":5070,"Ġcontinuar":5071,"ĠaprobaciÃ³n":5072,"ĠJimÃ©nez":5073,"izo":5074,"Ġopciones":5075,"Ġsalv":5076,"Ġencab":5077,"Ġabierta":5078,"amblea":5079,"Ġsimple":5080,"ĠTur":5081,"ĠRed":5082,"Ġvoy":5083,"Ġocupa":5084,"derÃŃa":5085,"Ġaquella":5086,"ĠpromociÃ³n":5087,"ĠClub":5088,"Ġindustrial":5089,"Ġelementos":5090,"17":5091,"ĠquerÃŃa":5092,"Ġprolon":5093,"quÃŃa":5094,"brado":5095,"ick":5096,"ĠprÃ¡ctica":5097,"Ġchoque":5098,"usos":5099,"Ġmonta":5100,"Ġmarcador":5101,"th":5102,"Ġasisti":5103,"Ġdiversos":5104,"Ġdicen":5105,"Ġelectr":5106,"Ġoro":5107,"âĢĿ,":5108,"cÃŃan":5109,"lin":5110,"Ġromp":5111,"ĠdÃ©bi":5112,"Ġconsecuencias":5113,"IB":5114,"ĠBeni":5115,"Ġmiembro":5116,"Ġdisponi":5117,"eraturas":5118,"Ġarchi":5119,"Ġpregunta":5120,"Ġconvocatoria":5121,"Ġsemi":5122,"ĠAf":5123,"Ġimpacto":5124,"Ġdistancia":5125,"biÃ³":5126,"Ġobjeto":5127,"ĠampliaciÃ³n":5128,"ĠcorazÃ³n":5129,"Ġsindi":5130,"Ġcrea":5131,"ĠCrist":5132,"Ġausencia":5133,"ĠFo":5134,"Ġquiero":5135,"Ġdebajo":5136,"Ġdirigentes":5137,"ĠTeatro":5138,"ĠDer":5139,"Ġnave":5140,"Re":5141,"Ġarmas":5142,"Ġ36":5143,"Ġlibros":5144,"Ġsenci":5145,"enemos":5146,"ĠCamps":5147,"ĠTodos":5148,"ĠdeberÃ¡":5149,"ĠautÃ³nomas":5150,"sal":5151,"ris":5152,"Ġexpec":5153,"Ġpersonajes":5154,"Ġdirectora":5155,"Ġtercero":5156,"ĠEr":5157,"Ġteniendo":5158,"ĠGra":5159,"ĠHab":5160,"Ġech":5161,"ĠcelebrarÃ¡":5162,"ejo":5163,"ĠLond":5164,"ĠFa":5165,"Ġutilizar":5166,"Ġhermano":5167,"Ġconsiderado":5168,"ĠgÃ©nero":5169,"Ġvoto":5170,"Ġempezar":5171,"Ġlarga":5172,"Le":5173,"Ã³nde":5174,"Ġsuma":5175,"Ġacre":5176,"alismo":5177,"Ġsocios":5178,"ĠSegun":5179,"Ġautom":5180,"Ġobtener":5181,"14":5182,"So":5183,"Ġintensi":5184,"Ġcomprar":5185,"irse":5186,"Ġprovincial":5187,"rael":5188,"ĠCastro":5189,"ĠÃ¡n":5190,"Ġvuelto":5191,"ĠSalv":5192,"mu":5193,"ull":5194,"Ġaspira":5195,"mad":5196,"Ġunidad":5197,"bierto":5198,"ĠNadal":5199,"ĠCampo":5200,"ĠBlanca":5201,"sual":5202,"Ġprotagonista":5203,"Ġocul":5204,"Ġsituado":5205,"Ġllen":5206,"ĠNorte":5207,"Ġreconocido":5208,"Ġantiguo":5209,"iz":5210,"Ġefica":5211,"Ġferia":5212,"Ġprop":5213,"Ġideas":5214,"ĠalemÃ¡n":5215,"Ġeuropeo":5216,"ologÃŃas":5217,"arre":5218,"Ġcompa":5219,"ĠrÃŃo":5220,"ariciÃ³n":5221,"Ġlidera":5222,"tÃŃa":5223,"Ġcump":5224,"ĠUGT":5225,"Ġllama":5226,"Ġelegido":5227,"Ġnucle":5228,"16":5229,"Ġacon":5230,"Ġinfl":5231,"Ġpersonaje":5232,"beros":5233,"Ġdiferente":5234,"Ġmanifesta":5235,"ĠEnrique":5236,"Ġdolor":5237,"cena":5238,"Ġestablecimientos":5239,"Ġpermanente":5240,"23":5241,"Ġfavori":5242,"Ġgalard":5243,"ĠeconÃ³micas":5244,"ĠautÃ©nt":5245,"Ġopti":5246,"Ġquince":5247,"andro":5248,"Ġcrim":5249,"Ġpasaj":5250,"ust":5251,"Ġalco":5252,"Ãºan":5253,"bao":5254,"Ġpiloto":5255,"ĠEEUU":5256,"camiento":5257,"Ġtari":5258,"ĠtÃ©rminos":5259,"ĠPrimera":5260,"tarÃŃa":5261,"olÃ³gica":5262,"ĠMuseo":5263,"Ġcomienzo":5264,"Ġotor":5265,"Ġtrabaja":5266,"ĠbritÃ¡nico":5267,"del":5268,"Ġjusticia":5269,"Ġinicial":5270,"Ġabandon":5271,"Ġmemoria":5272,"yan":5273,"tiz":5274,"bio":5275,"ĠsitÃºa":5276,"ples":5277,"Ġrecoge":5278,"Ġocurre":5279,"geciras":5280,"ĠSala":5281,"teros":5282,"carse":5283,"Ġgenerales":5284,"Ġdirectamente":5285,"Ġlegislatura":5286,"ĠIr":5287,"Ġesposa":5288,"Ġsustitu":5289,"ĠAll":5290,"ĠperdiÃ³":5291,"Ġdiversas":5292,"scar":5293,"ong":5294,"ĠMes":5295,"sitos":5296,"quia":5297,"ĠmillÃ³n":5298,"OR":5299,"ntidad":5300,"Ġconcur":5301,"Ġsitio":5302,"Ġrelacion":5303,"rarÃ¡":5304,"dis":5305,"Ġgobi":5306,"Ġfundamental":5307,"ĠLondres":5308,"Ġenca":5309,"ĠSup":5310,"ĠdetenciÃ³n":5311,"Ġnumerosas":5312,"Yo":5313,"tidas":5314,"Ġresolver":5315,"Ġempe":5316,"Ġfechas":5317,"Ġnumerosos":5318,"Ġargument":5319,"Ġdescen":5320,"Ġexcep":5321,"pia":5322,"Ġarres":5323,"Ġcondena":5324,"udo":5325,"Ġdep":5326,"arte":5327,"lista":5328,"Ġactriz":5329,"Ġ(-":5330,"Ġcivil":5331,"Ġimplant":5332,"Ġcabal":5333,"Ġavent":5334,"Ġdue":5335,"ĠDefensa":5336,"gni":5337,"ĠdiÃ¡logo":5338,"ĠtelÃ©fono":5339,"Ġpide":5340,".-Â¿":5341,"Ġllamado":5342,"Ġcausas":5343,"ĠilusiÃ³n":5344,"Ġextranjeros":5345,"Mar":5346,"gon":5347,"Ġempren":5348,"ienen":5349,"ĠBras":5350,"Ġtotalmente":5351,"pero":5352,"ĠCole":5353,"cÃ©":5354,"Ġparcial":5355,"Ġsilen":5356,"Ġconsist":5357,"Ġdeportivo":5358,"Ġitaliano":5359,"Ġinmue":5360,"alizÃ³":5361,"Ahora":5362,"ON":5363,"Ġpers":5364,"Ġpartida":5365,"Ġcomenzar":5366,"tamen":5367,"ĠinsistiÃ³":5368,"rano":5369,"Ġamigo":5370,"lada":5371,"Ġdor":5372,"crip":5373,"Ġpacientes":5374,"Ġnecesaria":5375,"Âº":5376,"ĠAVE":5377,"ĠMil":5378,"Ġprogres":5379,"Ġlegal":5380,"Ġpac":5381,"ĠpolÃ©mica":5382,"rador":5383,"Ġ.":5384,"adÃ¡":5385,"Ġreper":5386,"Ġdur":5387,"Ġcomplicado":5388,"ĠServicio":5389,"ĠMÃ©xico":5390,"Ġdando":5391,"Ġpier":5392,"ÃŃsticos":5393,"Ġ150":5394,"ack":5395,"ĠdemocrÃ¡":5396,"ÃŃnci":5397,"ĠconsiderÃ³":5398,"sores":5399,"ÃŃfica":5400,"ĠAlgeciras":5401,"Ġproduce":5402,"Ġoficiales":5403,"22":5404,"Ġojos":5405,"ĠII":5406,"Ġabord":5407,"Ġatrib":5408,"Ġdetalles":5409,"ervi":5410,"Ġ400":5411,"Ġgenera":5412,"Ġmarido":5413,"PV":5414,"yendo":5415,"Ġasuntos":5416,"Ġanuncio":5417,"ĠEsc":5418,"itario":5419,"amo":5420,"Ġestim":5421,"Ġ2000":5422,"ÃŃtica":5423,"culares":5424,"Ġtransform":5425,"ly":5426,"ash":5427,"osidad":5428,"Ġpuedo":5429,"ĠcaracterÃŃsticas":5430,"aro":5431,"Ġreda":5432,"ĠGer":5433,"ĠBos":5434,"icaciones":5435,"Ġmus":5436,"Ġuste":5437,"Ġurbano":5438,"Ġcircunstancias":5439,"rÃŃan":5440,"Ġconta":5441,"Ġimagin":5442,"Ġdisposi":5443,"ĠMariano":5444,"Ġrealmente":5445,"ĠMos":5446,"Ġprima":5447,"ĠDios":5448,"usia":5449,"fÃŃa":5450,"Ġcone":5451,"rarse":5452,"Ġregal":5453,"Ġcabe":5454,"ĠEmpres":5455,"ĠvÃŃas":5456,"Ġalqui":5457,"Ġocurrido":5458,"ĠJoa":5459,"ĠIsrael":5460,"gidas":5461,"Ġrazones":5462,"Ġfabric":5463,"ĠJuzgado":5464,"Res":5465,"Ġ196":5466,"Ġpropiedad":5467,"ĠcompaÃ±ero":5468,"Ġsorpresa":5469,"ema":5470,"mir":5471,"Ġsome":5472,"Ġdoctor":5473,"Ġsufrido":5474,"ĠcÃ©":5475,"viera":5476,"Ġsituaciones":5477,"ota":5478,"ĠsufriÃ³":5479,"leo":5480,"garÃ¡":5481,"Ġmovimiento":5482,"Ã±ez":5483,"Ġencargado":5484,"mico":5485,"erse":5486,"Ġbe":5487,"Ġpasando":5488,"ĠtÃ©cnica":5489,"Ġmuertos":5490,"%).":5491,"Que":5492,"rieron":5493,"Ġdra":5494,"Ġclara":5495,"ĠtÃŃtulos":5496,"ĠSuperior":5497,"ficados":5498,"Ġimporte":5499,"Ãºsque":5500,"Ġexistencia":5501,"Ġgalle":5502,"Ġcampeonato":5503,"Ġsist":5504,"Ġpresupuestos":5505,"Ġorganismo":5506,"Ġaproxim":5507,"AN":5508,"dra":5509,"fal":5510,"anes":5511,"Ġniveles":5512,"dada":5513,"ĠSem":5514,"ĠFuer":5515,"Ġcontratos":5516,"pecto":5517,"Ġvuelve":5518,"Ġesperanza":5519,"Ġatentado":5520,"ĠMayor":5521,"xic":5522,"Ġcaja":5523,"Ġrode":5524,"ĠOrg":5525,"Ġactuar":5526,"Ġidentidad":5527,"Ġhel":5528,"omos":5529,"uesto":5530,"ismos":5531,"Ġpiezas":5532,"Ġfrec":5533,"35":5534,"cambi":5535,"Ġ34":5536,"Ġprotesta":5537,"Ġestructura":5538,"Ġperci":5539,"Ġterrenos":5540,"Ġgrab":5541,"Ġdesempleo":5542,"ĠMientras":5543,"Ġbras":5544,"Ġcierta":5545,"arla":5546,"ĠGuerra":5547,"Ġorganizaciones":5548,"Ġplataforma":5549,"ĠBilbao":5550,"Ġestrella":5551,"ĠtradiciÃ³n":5552,"Ġvincul":5553,"ons":5554,"Ã³cra":5555,"Ġactuales":5556,"Ġcalen":5557,"Ġatrac":5558,"Ġobliga":5559,"Ġnormativa":5560,"ĠTa":5561,"ĠraÃŃ":5562,"Ġnombres":5563,"Ġabre":5564,"Ġ65":5565,"ĠNavarra":5566,"ĠVirgen":5567,"Ġras":5568,"ĠAli":5569,"Ġqueremos":5570,"amanca":5571,"Ġinqui":5572,"tumb":5573,"tron":5574,"ĠaficiÃ³n":5575,"ĠEuropeo":5576,"ĠUrban":5577,"Ġrevista":5578,"ĠPNV":5579,"Ġgrat":5580,"ĠFeli":5581,"Ġconsideran":5582,"ĠEusk":5583,"ĠbÃºsque":5584,"Ġanual":5585,"Ġorgul":5586,"Ġec":5587,"Ġcocina":5588,"ĠDurante":5589,"Ġedificios":5590,"Ġafecta":5591,"ultad":5592,"Ġperjudi":5593,"Ġpasos":5594,"Ġimpe":5595,"Ġtoros":5596,"Ġestablece":5597,"Ġsecretaria":5598,"Ġnegociaciones":5599,"Ġdiplom":5600,"tia":5601,"ĠOfici":5602,"uelas":5603,"ventud":5604,"Ġfinanciero":5605,"ĠacompaÃ±ado":5606,"Ġcarreteras":5607,"-.":5608,"Qui":5609,"ĠBol":5610,"ĠAlf":5611,"Ġagricul":5612,"Ġnorteameric":5613,"encial":5614,"Ġescena":5615,"OS":5616,"Ġfren":5617,"Ġparados":5618,"Ġllegan":5619,"Ġvender":5620,"Ġinferior":5621,"Ġpreocupa":5622,"Ġrehabili":5623,"Ġintento":5624,"Ġautores":5625,"Ġdeseo":5626,"Ġacudir":5627,"strucciÃ³n":5628,"daciÃ³n":5629,"Ġcomis":5630,"Ġposteriormente":5631,"Ġafrontar":5632,"Ġerror":5633,"Ġpolicial":5634,"cipl":5635,"rena":5636,"Ġenorme":5637,"rito":5638,"Ġrevel":5639,"Ġvigor":5640,"ĠJe":5641,"Ġ2002":5642,"ĠJohn":5643,"Ġmanifestado":5644,"zgo":5645,"Ġprefi":5646,"Ġajust":5647,"zaba":5648,"Ġalber":5649,"Ġviven":5650,"Ġjudiciales":5651,"Ġfemen":5652,"Ġbur":5653,"Ġmez":5654,"Ġresist":5655,"Ġ2012":5656,"ĠdÃ©cadas":5657,"ĠestarÃ¡n":5658,"goza":5659,"Ġprevista":5660,"ĠcompaÃ±ÃŃas":5661,"Ġterrorismo":5662,"anta":5663,"guar":5664,"Ġpresupuest":5665,"Mientras":5666,"ela":5667,"Ġbro":5668,"ariamente":5669,"Ġtrayectoria":5670,"ĠlÃŃderes":5671,"Ġperiodista":5672,"Ġmantenimiento":5673,"ĠSegunda":5674,"iente":5675,"ĠinglÃ©s":5676,"Ġmotor":5677,"Ġcompleto":5678,"tante":5679,"Ġarras":5680,"clam":5681,"Ġdesarrollar":5682,"ĠConselleria":5683,"ĠZamora":5684,"Ġquinto":5685,"Ġradio":5686,"Ġpermitido":5687,"Ġsalvo":5688,"ĠCampe":5689,"Ġespectadores":5690,"ĠHoy":5691,"Ġnegro":5692,"Ġcircuito":5693,"Ġment":5694,"Ġpresunto":5695,"Ġaumentar":5696,"ĠrÃ¡pido":5697,"Ġtonel":5698,"ĠIra":5699,"Ġ38":5700,"Ġcerrado":5701,"Ġcuentan":5702,"Ġdirigido":5703,"Ġcompetencia":5704,"Ġcuarta":5705,"ĠNavarro":5706,"tamos":5707,"ĠÃŃ":5708,"cenas":5709,"ĠcontinÃºa":5710,"Ġiniciativas":5711,"ulso":5712,"Ġsecuest":5713,"Ġferro":5714,"Ġrepi":5715,"Ġprior":5716,"Ġbalance":5717,"ĠSergio":5718,"Ġcontroladores":5719,"Ġreformas":5720,"Ġacuerdos":5721,"Ġincon":5722,"Ġcomport":5723,"Ġabandonar":5724,"Ã³logo":5725,"ĠdiseÃ±o":5726,"Ġdigi":5727,"Ġbatal":5728,"quina":5729,"ĠiniciÃ³":5730,"Ġespecta":5731,"Ġcari":5732,"inar":5733,"Ġdesen":5734,"Ġhistori":5735,"Ġges":5736,"ĠBri":5737,"ĠExteriores":5738,"Ġcontenido":5739,"ciado":5740,"Ġgrado":5741,"ĠBor":5742,"ĠcondiciÃ³n":5743,"ĠdocumentaciÃ³n":5744,"Ġja":5745,"land":5746,"cules":5747,"ĠdecÃŃa":5748,"Ġcreado":5749,"Ġvaya":5750,"Ġfinanciera":5751,"Ġbeneficios":5752,"ledo":5753,"lido":5754,"ĠAndr":5755,"Ġprovincias":5756,"Ġsubrayado":5757,"ĠComercio":5758,"Ġpasajeros":5759,"ĠBrasil":5760,"AM":5761,"lores":5762,"Ġveter":5763,"Ġestudiantes":5764,"Ġcomercio":5765,"versario":5766,"pÃ³n":5767,"Ġrep":5768,"Ġcomi":5769,"ajo":5770,"ĠRusia":5771,"Ġrecorte":5772,"Ġprivada":5773,"Ġresidu":5774,"Ġcalendario":5775,"uente":5776,"Ã³nico":5777,"Ġsubir":5778,"Ġheridos":5779,"mÃ¡tico":5780,"Ġepi":5781,"Ġinnov":5782,"Ġaspecto":5783,"tino":5784,"Ġvasco":5785,"ĠMc":5786,"uertos":5787,"ĠFestival":5788,"Ã©rcules":5789,"ington":5790,"Ġcorresponde":5791,"Ġconfirmado":5792,"ĠConstituciÃ³n":5793,"ĠSemana":5794,"mni":5795,"Ġnacionales":5796,"Ġbrasile":5797,"Ġsorte":5798,"ĠArm":5799,"Ġunidades":5800,"ĠSen":5801,"Ġencuentros":5802,"uida":5803,"gnacio":5804,"Ġdecreto":5805,"fes":5806,"Ġbru":5807,"Ġdesc":5808,"eles":5809,"cioso":5810,"Ġembar":5811,"Ġvecino":5812,"Ġmantenido":5813,"ĠIb":5814,"Ġcentenar":5815,"ĠaviÃ³n":5816,"guraciÃ³n":5817,"Ġposterior":5818,"Ġinspec":5819,"ĠÃģlvarez":5820,"ĠDÃŃaz":5821,"ĠbÃºsqueda":5822,"AL":5823,"ĠlÃ³g":5824,"siciÃ³n":5825,"ĠSch":5826,"Ġentradas":5827,"Ġpresentes":5828,"Ġganas":5829,"ĠEjÃ©rcito":5830,"Ġcandidatos":5831,"ĠAutÃ³n":5832,"Ya":5833,"lados":5834,"arle":5835,"ĠdÃ³nde":5836,"ĠSur":5837,"Ġciviles":5838,"Â¡":5839,"Ġregu":5840,"gentina":5841,"ĠpÃ©rdida":5842,"Ġcomba":5843,"Ã©cord":5844,"ĠDivisiÃ³n":5845,"ĠsueÃ±o":5846,"Ġprocedimiento":5847,"Ġantigua":5848,"Ġcontempla":5849,"Ġmuseo":5850,"Ġdato":5851,"ĠconvirtiÃ³":5852,"carÃ¡":5853,"jandro":5854,"ÃŃna":5855,"Ġestren":5856,"ates":5857,"Ġpocas":5858,"blos":5859,"Ġvali":5860,"derÃ¡":5861,"actos":5862,"Ġ42":5863,"Ġorganizado":5864,"ĠCanarias":5865,"Ġturistas":5866,"Ġencabez":5867,"Ġperfil":5868,"mental":5869,"Ġpendiente":5870,"Ġplena":5871,"ĠÃŃn":5872,"Ġtradu":5873,"ĠSalamanca":5874,"Ġhumano":5875,"Ġterroristas":5876,"ĠcrÃ©dito":5877,"Ġnavide":5878,"Ġdicha":5879,"Ġmatrimonio":5880,"Ġpuntu":5881,"Ġconvertirse":5882,"inho":5883,"ĠconcentraciÃ³n":5884,"ĠcontarÃ¡":5885,"Ġcha":5886,"ĠmÃ³vil":5887,"Ġiglesia":5888,"ĠSanto":5889,"Ġbreve":5890,"bes":5891,"for":5892,"lico":5893,"Ġreto":5894,"ĠHÃ©rcules":5895,"osiciones":5896,"ĠjurÃŃdi":5897,"ĠOrden":5898,"Ġpresidencia":5899,"Ġpresti":5900,"gunos":5901,"Ġvolumen":5902,"ĠGarzÃ³n":5903,"Ġprocedentes":5904,"ĠRosa":5905,"Ġciudadano":5906,"Ġronda":5907,"Ġbajas":5908,"ciona":5909,"Ġrecientemente":5910,"ĠDu":5911,"Ġfunciones":5912,"Ġdemocracia":5913,"Ġiban":5914,"Ã¡ticas":5915,"ĠPapa":5916,"Ġfallecido":5917,"ker":5918,"Ġgala":5919,"Ġdesper":5920,"ĠFeria":5921,"ficientes":5922,"Ġpied":5923,"enzo":5924,"Ġenv":5925,"Ġmotiv":5926,"Ġrecinto":5927,"ĠAgencia":5928,"illi":5929,"Ġpolic":5930,"Ġileg":5931,"cola":5932,"Ġcumple":5933,"Ġcomprobar":5934,"Ġpais":5935,"zarse":5936,"Ġmanifiesto":5937,"gÃ¼":5938,"Ġmati":5939,"Ġdispuesto":5940,"Ġsindicato":5941,"ime":5942,"ÃŃtu":5943,"Ġmetro":5944,"Ġdesemb":5945,"ĠTrabajo":5946,"ccident":5947,"talidad":5948,"ĠEnt":5949,"Ġmoda":5950,"Ġbici":5951,"riz":5952,"Ġrequi":5953,"Ġaltas":5954,"Ġdibu":5955,"Ġencontrado":5956,"Ġciclo":5957,"ĠmadrileÃ±o":5958,"ĠDirecciÃ³n":5959,"inado":5960,"Ġdespa":5961,"ĠVen":5962,"gualmente":5963,"Ġcambiado":5964,"Ġescuela":5965,"Ġlocalidades":5966,"Ġescritor":5967,"ĠlesiÃ³n":5968,"cidas":5969,"Ã±ar":5970,"ĠComitÃ©":5971,"palmente":5972,"Ġpsic":5973,"Ġtes":5974,"Ġfestival":5975,"Ġreun":5976,"ĠrÃ©cord":5977,"ivo":5978,"uf":5979,"Ġespal":5980,"uidad":5981,"Ġ37":5982,"Ġprivado":5983,"ÃŃritu":5984,"Ġabor":5985,"Ġcorto":5986,"Ġdiferencias":5987,"Ġirreg":5988,"ĠaprobÃ³":5989,"ĠÃģngeles":5990,"Ġcondenado":5991,"ĠZaragoza":5992,"Ġnar":5993,"Ġpacto":5994,"Ġformas":5995,"Ġsuele":5996,"Ġacoger":5997,"ĠIU":5998,"Ġ600":5999,"Ġcelebrado":6000,"ĠJoaquÃŃn":6001,"Ġincu":6002,"ĠBale":6003,"Ġreferi":6004,"Ġvicepresidenta":6005,"Ġcomida":6006,"Ġpuente":6007,"Ġarre":6008,"Ġaccidentes":6009,"ĠSociedad":6010,"kel":6011,"ĠLle":6012,"Ġarriba":6013,"alcaba":6014,"ĠestÃ©n":6015,"Ġimpon":6016,"Ġpudieron":6017,"ĠsensaciÃ³n":6018,"Ġcontribuy":6019,"80":6020,"Ġinmo":6021,"ĠRic":6022,"Ġpade":6023,"Ġjueces":6024,"Ġsalido":6025,"Ġves":6026,"ĠdarÃ¡":6027,"ĠIgnacio":6028,"Ġneg":6029,"ĠEmi":6030,"Ġdirige":6031,"ĠseguirÃ¡":6032,"ĠpreocupaciÃ³n":6033,"Sobre":6034,"uegos":6035,"ĠMÃ¡s":6036,"Ġsola":6037,"Ġcaer":6038,"Ġcliente":6039,"Ġmovili":6040,"Ġevento":6041,"Ġviento":6042,"Ġempresario":6043,"ĠgeneraciÃ³n":6044,"Ġregul":6045,"Ġrebotes":6046,"gico":6047,"imp":6048,"Ġganador":6049,"ĠintegraciÃ³n":6050,"sin":6051,"Ġmuerto":6052,"Ġhostel":6053,"gadas":6054,"mem":6055,"eca":6056,"Ġcarga":6057,"osotros":6058,"ĠparecÃŃa":6059,"echos":6060,"Ġconcepto":6061,"Ġfras":6062,"ĠmisiÃ³n":6063,"uestas":6064,"Ġprece":6065,"ji":6066,"Ġestadio":6067,"Ġboni":6068,"Ġsosteni":6069,"Ġfactura":6070,"Ġtoro":6071,"ĠtecnologÃŃa":6072,"Ġmantuvo":6073,"Ġcombin":6074,"Ġdimi":6075,"Ġprecipi":6076,"Ġglobal":6077,"tencias":6078,"Ġterminar":6079,"Â».-":6080,"Ġinformaron":6081,"Ġaquellas":6082,"ĠBas":6083,"Ġameric":6084,"ĠocurriÃ³":6085,"RC":6086,"Ġaler":6087,"ĠDom":6088,"21":6089,"Ġpersonales":6090,"Ġtoma":6091,"Ġpreguntas":6092,"Ġamenaza":6093,"Ġempresarial":6094,"ĠTh":6095,"Ġrivales":6096,"inta":6097,"idencia":6098,"Ġza":6099,"Ġavenida":6100,"ĠAnte":6101,"Ġprovisi":6102,"ĠUU":6103,"ĠniÃ±a":6104,"Ġ75":6105,"Ġtemporal":6106,"ĠVa":6107,"cluso":6108,"Ġsaben":6109,"Ġculpa":6110,"ĠÃ¡reas":6111,"ĠOli":6112,"Ġlider":6113,"tecas":6114,"Ġefectu":6115,"ĠpolicÃŃas":6116,"Ġtendencia":6117,"Ġcostes":6118,"lÃŃmp":6119,"ĠEstatu":6120,"ĠONU":6121,"Ġdelantero":6122,"ĠFelipe":6123,"Ġhec":6124,"ĠUno":6125,"ĠTorres":6126,"Ġesfuerzos":6127,"Ġtoneladas":6128,"rores":6129,"dias":6130,"ĠGe":6131,"ĠautonÃ³mico":6132,"Ġsilencio":6133,"dÃŃ":6134,"feri":6135,"teo":6136,"Ġverde":6137,"Ġestablecer":6138,"ĠconfirmÃ³":6139,"pÃ³sito":6140,"ÃŃficos":6141,"uma":6142,"Ġbanco":6143,"Ġtriunf":6144,"Ġacumul":6145,"quen":6146,"Ġasistentes":6147,"Ġcartel":6148,"ĠJuli":6149,"Ġheridas":6150,"ĠartÃŃculo":6151,"bras":6152,"Ã±oz":6153,"ĠPorque":6154,"ĠParque":6155,"ĠDol":6156,"Ġcaf":6157,"Ġespecie":6158,"Ġpoliciales":6159,"wn":6160,"Ġdemostrado":6161,"PS":6162,"Ġaconte":6163,"tx":6164,"ramos":6165,"Ġsumar":6166,"eridad":6167,"Ġfuente":6168,"Ġinformes":6169,"ood":6170,"Ġpueblos":6171,"Ġquedar":6172,"ĠCentral":6173,"Ġindemni":6174,"ĠAlejandro":6175,"27":6176,"Ġhorario":6177,"DespuÃ©s":6178,"grafÃŃas":6179,"Ġnervi":6180,"Ġdecidir":6181,"Ġconform":6182,"Ġhermanos":6183,"cla":6184,"raelÃŃ":6185,"ĠJoan":6186,"ĠhistÃ³rica":6187,"Ġolvidar":6188,"Cas":6189,"gante":6190,"Ġcercan":6191,"Ġescuch":6192,"Ġderiv":6193,"zy":6194,"ins":6195,"quillo":6196,"Ġconteni":6197,"ĠVÃŃ":6198,"Ġprincipalmente":6199,"ĠArgentina":6200,"ĠIsabel":6201,"Ġlesiones":6202,"Ġama":6203,"Ġfas":6204,"Ġtomado":6205,"Ġpose":6206,"Ġobligado":6207,"fÃ³nica":6208,"Ġparce":6209,"ĠSam":6210,"don":6211,"icios":6212,"ĠHist":6213,"Ġmarcado":6214,"Ġevidente":6215,"maras":6216,"ciles":6217,"tric":6218,"jal":6219,"cesos":6220,"amaÃ±o":6221,"Ġresidencia":6222,"Ġabsoluta":6223,"ĠFre":6224,"ĠpÃ¡ginas":6225,"capacidad":6226,"Ġhin":6227,"ĠcorrupciÃ³n":6228,"Ġllevaba":6229,"Ġaparece":6230,"ĠCÃ¡diz":6231,"Ġargentino":6232,"rÃŃo":6233,"sado":6234,"Ġamp":6235,"dice":6236,"sia":6237,"ĠGab":6238,"ĠVel":6239,"Ġatender":6240,"Ġcomerciales":6241,"Ġturno":6242,"Ġvalencianos":6243,"Ġequili":6244,"Ġexplicar":6245,"IC":6246,"ĠMed":6247,"ĠBien":6248,"Ġ2001":6249,"Ġconsejo":6250,"Ġexpediente":6251,"24":6252,"ĠSte":6253,"Ġagencia":6254,"Ġsangre":6255,"Ġfrancesa":6256,"jada":6257,"Ġmantienen":6258,"Ġformar":6259,"Ġsupervi":6260,"Ġnieve":6261,"Ġobserv":6262,"Ġtrib":6263,"Ġactores":6264,"ĠDE":6265,"Ġcolectivos":6266,"ĠAndrÃ©s":6267,"cant":6268,"frad":6269,"radores":6270,"tillo":6271,"ical":6272,"ĠMat":6273,"Ġacerca":6274,"serva":6275,"29":6276,"Ġplen":6277,"ĠcayÃ³":6278,"Ġanimales":6279,"ĠUrbanismo":6280,"uncias":6281,"Ġcomuni":6282,"Ġalcanzado":6283,"Ġdeportiva":6284,"Ġago":6285,"Ġrealiza":6286,"Ġdispone":6287,"uena":6288,"Ġvel":6289,"Ġsale":6290,"ĠpequeÃ±as":6291,"Ġasesor":6292,"ÃŃsima":6293,"zquez":6294,"ĠBla":6295,"Ġjurado":6296,"Ġfen":6297,"Ġpaseo":6298,"Ġamari":6299,"Ġlimpieza":6300,"33":6301,"Ġrequier":6302,"Ġacos":6303,"ĠBerl":6304,"ĠCer":6305,"Ġninguno":6306,"Ġmoderado":6307,"Ġmateriales":6308,"Ġdistin":6309,"Ġalternativa":6310,"FE":6311,"demia":6312,"Ġestablecimiento":6313,"Ġconvencido":6314,"didad":6315,"Ġconec":6316,"oya":6317,"ĠseÃ±or":6318,"Ġcuesta":6319,"Ġconsumidores":6320,"Ju":6321,"icaciÃ³n":6322,"Ġmedal":6323,"Ġvisitas":6324,"ĠAmÃ©rica":6325,"Ġsustit":6326,"Ġespeciales":6327,"Ġpantalla":6328,"ĠalegrÃŃa":6329,"ĠVivi":6330,"ĠMuÃ±oz":6331,"ĠIndustria":6332,"ashington":6333,"blemente":6334,"Ġrealizada":6335,"Ġdirecta":6336,"Ġboca":6337,"ĠRubalcaba":6338,"Ġentiende":6339,"Ġsubven":6340,"Ġfortal":6341,"Ġdiputados":6342,"Ġcuri":6343,"Ġartes":6344,"Ġpales":6345,"amor":6346,"ley":6347,"ĠCE":6348,"enses":6349,"ĠdeberÃ¡n":6350,"Ġensa":6351,"NE":6352,"Ġesco":6353,"Ġocio":6354,"Ġcomplejo":6355,"Ġnovela":6356,"ĠdistribuciÃ³n":6357,"Ġreivindi":6358,"MÃ¡s":6359,"dedores":6360,"ĠAc":6361,"Ġdimen":6362,"Ġtiro":6363,"ĠMarta":6364,"Ġmalos":6365,"ĠAlfonso":6366,"blio":6367,"ertas":6368,"Ġredes":6369,"ĠPIB":6370,"Ãºblica":6371,"Ġcanciones":6372,"Ġcorrespondiente":6373,"ĠisraelÃŃ":6374,"anzas":6375,"Ġtaba":6376,"ĠCiU":6377,"Ġprevisiones":6378,"Ġconductor":6379,"Ġll":6380,"tic":6381,"Ġenter":6382,"Ġtrabajan":6383,"Ġlitoral":6384,"Ġconfes":6385,"ĠnÃºmeros":6386,"ĠPalma":6387,"Ġprotagonistas":6388,"ĠDos":6389,"saciones":6390,"Ġmarch":6391,"Ġpendientes":6392,"Ġbarco":6393,"ĠautonÃ³mica":6394,"grÃ¡fica":6395,"Ġsistemas":6396,"ĠBaleares":6397,"Ã©ndo":6398,"Ġrecuerdo":6399,"Ġsoldados":6400,"Ġelector":6401,"Ġrefiere":6402,"Ġexpecta":6403,"ÃŃncipe":6404,"vieja":6405,"ĠcapÃŃtu":6406,"Ġalcoh":6407,"jor":6408,"Ġempate":6409,"Ġbienes":6410,"Ġvenido":6411,"Ġnecesarios":6412,"Ġhospi":6413,"Pre":6414,"Ġav":6415,"taban":6416,"Ġaltos":6417,"Ġvienen":6418,"Ġrestos":6419,"cindi":6420,"Ġnaturaleza":6421,"Ġhogares":6422,"70":6423,"terio":6424,"Ġoficinas":6425,"ĠÃ³rgano":6426,"cupar":6427,"lancia":6428,"ĠnaciÃ³":6429,"Ġefectivos":6430,"Ġpermanecer":6431,"Ġreconocer":6432,"Ġpatro":6433,"ĠJack":6434,"Ġestabilidad":6435,"Ġrealizadas":6436,"Ġpropietarios":6437,"Ġduelo":6438,"Ġtiros":6439,"Ġtipos":6440,"mina":6441,"Ġmostrar":6442,"Ġprovocado":6443,"AD":6444,"Ġeval":6445,"tista":6446,"Ġalo":6447,"selas":6448,"Ġpele":6449,"ĠreciÃ©n":6450,"Ġpropias":6451,"Ġrecogida":6452,"Ġfacilitar":6453,"Ġligero":6454,"Co":6455,"ww":6456,"Ãģ":6457,"Ġset":6458,"uerta":6459,"piÃ©":6460,"Ġisla":6461,"Ġintercambi":6462,"Ġasegurar":6463,"Ã³mo":6464,"Ġmoto":6465,"Ġproducir":6466,"Ġbeneficio":6467,"cripciÃ³n":6468,"Ãī":6469,"ĠAmb":6470,"Ġerrores":6471,"ĠespÃŃritu":6472,"ĠEmpleo":6473,"Ã¡ncer":6474,"ĠBus":6475,"Ġpasan":6476,"ĠArtes":6477,"ĠelecciÃ³n":6478,"ĠLorca":6479,"Ġjuntos":6480,"ĠBro":6481,"ernas":6482,"ĠtensiÃ³n":6483,"Ġsini":6484,"Ġplantas":6485,"Ġreuniones":6486,"Ġnecesarias":6487,"ĠGranada":6488,"Ġproclam":6489,"Ġnoticias":6490,"Ġdroga":6491,"Ġsuminist":6492,"Ġescon":6493,"ĠvisiÃ³n":6494,"Ġadul":6495,"ĠFuentes":6496,"Ġtarea":6497,"ĠcontinuaciÃ³n":6498,"Ġalim":6499,"Ġimpar":6500,"Ġropa":6501,"ĠÃĵ":6502,"edores":6503,"Ġhaberse":6504,"ĠquizÃ¡":6505,"Ġrobo":6506,"Ġconsiderar":6507,"Ġestrellas":6508,"Ġincluido":6509,"ĠadvirtiÃ³":6510,"rero":6511,"saciÃ³n":6512,"xo":6513,"ridos":6514,"Ġaseguran":6515,"Ġigualdad":6516,"Ġrechazo":6517,"Ġestadounidenses":6518,"Ġjard":6519,"Ġpobre":6520,"ĠtendrÃŃa":6521,"Ġdiscre":6522,"\".-":6523,"ĠWashington":6524,"ĠToledo":6525,"Ġfirmado":6526,"Ġhumor":6527,"ĠEsteban":6528,"ĠMoreno":6529,"Ġincendio":6530,"ĠjubilaciÃ³n":6531,"king":6532,"Ġculturales":6533,"Ġdenuncias":6534,"Ġfelici":6535,"Ġfutbolista":6536,"28":6537,"centes":6538,"Ġestad":6539,"Ġacu":6540,"ĠDomin":6541,"uelta":6542,"ĠlÃŃmite":6543,"Ġusted":6544,"Ġfant":6545,"Ġescul":6546,"llar":6547,"ĠOl":6548,"Ġconocida":6549,"Ġdemostrar":6550,"Ġandaluz":6551,"Hasta":6552,"esper":6553,"ĠJudi":6554,"lamen":6555,"menes":6556,"Ġsemif":6557,"Ġalimentos":6558,"ulo":6559,"Ġcursos":6560,"Ġvuelo":6561,"ĠEse":6562,"venil":6563,"alizados":6564,"ficada":6565,"Ġdesconoci":6566,"Ġresiduos":6567,"mÃ³n":6568,"zÃ¡s":6569,"dem":6570,"Ġfom":6571,"Ġconciertos":6572,"36":6573,"BC":6574,"cua":6575,"Ġcerc":6576,"Ġintensidad":6577,"ĠGri":6578,"ĠentrÃ³":6579,"ĠThe":6580,"Ġcerti":6581,"Ġsentenci":6582,"Ġvuelos":6583,"Ġregistro":6584,"Ġrecoger":6585,"ĠcelebrÃ³":6586,"Ġrescate":6587,"tente":6588,"manes":6589,"Ġelegir":6590,"Ġfirme":6591,"dri":6592,"hu":6593,"tÃŃ":6594,"doba":6595,"amÃ¡s":6596,"Ġgrados":6597,"Ġorganiz":6598,"ĠconcluyÃ³":6599,"bispo":6600,"Ġinvestigadores":6601,"Ġdelic":6602,"Ġdia":6603,"Ġantici":6604,"Ġamist":6605,"Ġconvierte":6606,"ĠPresu":6607,"Ġtreinta":6608,"Ġlluvia":6609,"ĠBene":6610,"atÃ³":6611,"dencial":6612,"Ġreducido":6613,"ĠFlor":6614,"Ġreparto":6615,"Ġrestaurante":6616,"Ġpilotos":6617,"Ġmagistrado":6618,"ĠBurgos":6619,"75":6620,"Ġformado":6621,"Ġrecortes":6622,"Ġnormalidad":6623,"Ġaj":6624,"ĠNic":6625,"ichael":6626,"bida":6627,"ĠRoma":6628,"Ġconcejales":6629,"Ġaliment":6630,"90":6631,"Ġaval":6632,"Ġcuyos":6633,"Ġcuadro":6634,"Ġpublicidad":6635,"ĠCristina":6636,"mado":6637,"Ã¡st":6638,"Ġcorte":6639,"Ġ48":6640,"Ġoficina":6641,"suales":6642,"ĠabriÃ³":6643,"Todo":6644,"Ġpanor":6645,"Ġofen":6646,"Ar":6647,"Ġacor":6648,"tarra":6649,"Ġinspi":6650,"26":6651,"Car":6652,"cierto":6653,"Ġproto":6654,"ĠWi":6655,"Ġinmobili":6656,"nar":6657,"Ġtex":6658,"Ġrati":6659,"olÃ³gicos":6660,"ĠpublicaciÃ³n":6661,"Ġprofesores":6662,"din":6663,"lorca":6664,"ĠpÃ©rdidas":6665,"abell":6666,"Ġbeb":6667,"Ġcubi":6668,"âĢĵ":6669,"Ã³rdoba":6670,"Ġestima":6671,"atasuna":6672,"adÃ¡ver":6673,"eda":6674,"ĠcadÃ¡ver":6675,"ues":6676,"rida":6677,"Ġnegocios":6678,"Ġlaborales":6679,"Ġcomparec":6680,"ĠsatisfacciÃ³n":6681,"ĠprogramaciÃ³n":6682,"ecre":6683,"ĠLak":6684,"Ġdiscipl":6685,"Ġdarle":6686,"Ġcumplido":6687,"ĠPilar":6688,"Ġparticipado":6689,"pora":6690,"Ġsopor":6691,"Ġcorrer":6692,"ÃŃtimo":6693,"Ġconsol":6694,"ĠTeresa":6695,"ĠTomÃ¡s":6696,"Ġul":6697,"ĠDon":6698,"Ġluch":6699,"ĠTour":6700,"Ġintelig":6701,"Ġoportunidades":6702,"ĠPenal":6703,"Ã¡bi":6704,"ĠIrÃ¡n":6705,"ĠHum":6706,"poraciÃ³n":6707,"ĠcolecciÃ³n":6708,"Ġrenunci":6709,"Ġretraso":6710,"34":6711,"tarias":6712,"Ġtas":6713,"elos":6714,"ĠmediodÃŃa":6715,"Ġbatalla":6716,"cente":6717,"ÃŃg":6718,"vio":6719,"ĠCha":6720,"Ġdifun":6721,"Ġautoridad":6722,"Ġimpuesto":6723,"Val":6724,"Ġconstante":6725,"Ġtraslado":6726,"Ġdefin":6727,"ĠterminÃ³":6728,"ĠfÃŃsico":6729,"Ġindependiente":6730,"CÃ³mo":6731,"SÃŃ":6732,"Ġlibres":6733,"Ġforman":6734,"errami":6735,"omÃŃas":6736,"Ġrey":6737,"Ã©si":6738,"Ã©li":6739,"Ġtrama":6740,"ĠNos":6741,"arato":6742,"brica":6743,"Ġembara":6744,"ĠPresidencia":6745,"Ġfutbolistas":6746,"ĠrehabilitaciÃ³n":6747,"tistas":6748,"migo":6749,"Ġretirada":6750,"TE":6751,"ferencias":6752,"Ġ43":6753,"Ġsufrir":6754,"ĠSalvador":6755,"MI":6756,"hor":6757,"Ġalerta":6758,"Ġaust":6759,"porque":6760,"ĠMediterrÃ¡neo":6761,"Ġcomportamiento":6762,"Ġvar":6763,"Ã±ado":6764,"ĠAca":6765,"ĠSud":6766,"ĠexcepciÃ³n":6767,"Ġimpro":6768,"ganistÃ¡n":6769,"Ġasesina":6770,"Ġsanitario":6771,"gando":6772,"Ġleer":6773,"Ġtrabajado":6774,"Ġsabemos":6775,"Ġapoyar":6776,"ĠÃºnicamente":6777,"Ġtrasladado":6778,"Ġcomienza":6779,"Ġnuclear":6780,"jÃ³n":6781,"ĠJer":6782,"ĠUnic":6783,"vez":6784,"ĠEra":6785,"guÃ©s":6786,"Ġasal":6787,"ĠCamp":6788,"Ġcontenidos":6789,"lectu":6790,"Ġesperaba":6791,"Ġadoles":6792,"Ġperspec":6793,"ios":6794,"Ġape":6795,"ĠSÃ¡":6796,"Ġprom":6797,"Ġliter":6798,"Ġconversaciones":6799,"Ġmandato":6800,"ĠrenovaciÃ³n":6801,"Ġ44":6802,"Ġlectura":6803,"Ġmagn":6804,"Ġcompetencias":6805,"Ġdedicado":6806,"ĠCristi":6807,"ĠAragÃ³n":6808,"Ã¡zquez":6809,"leta":6810,"ĠValle":6811,"ĠregistrÃ³":6812,"Ġamplia":6813,"huela":6814,"ĠElena":6815,"Ġinsistido":6816,"ĠIrak":6817,"ĠtamaÃ±o":6818,"Ġhol":6819,"ĠcomitÃ©":6820,"ĠUniversi":6821,"Ġcompleta":6822,"Ġescuchar":6823,"Jos":6824,"af":6825,"uran":6826,"Ġpaciente":6827,"Ġcristi":6828,"Ġalcance":6829,"dorm":6830,"ok":6831,"deos":6832,"Ġherrami":6833,"Ġconsenso":6834,"ĠencontrÃ³":6835,"Ġriesgos":6836,"ĠsuspensiÃ³n":6837,"nes":6838,"dirÃ¡":6839,"Ġretro":6840,"ariales":6841,"Ġestuvieron":6842,"Ġataques":6843,"ĠautÃ³noma":6844,"Ġlluvi":6845,"Mu":6846,"Ġpotencia":6847,"Ġarreg":6848,"ĠmanifestaciÃ³n":6849,"ĠAfganistÃ¡n":6850,"Ġcientos":6851,"Ġdaba":6852,"Ġdefinitivo":6853,"ĠGasol":6854,"rupaciÃ³n":6855,"Ġrepercu":6856,"ĠfenÃ³m":6857,"Vi":6858,"ĠVan":6859,"tara":6860,"Ġaniversario":6861,"Ġinsist":6862,"Ġgobiernos":6863,"ribe":6864,"Ġsecreto":6865,"Ġtalleres":6866,"ĠfrÃŃo":6867,"ĠGol":6868,"ĠAlfre":6869,"Ġextremo":6870,"ĠLakers":6871,"eco":6872,"Ġcontun":6873,"Ġpositiva":6874,"Ġvalenciana":6875,"Ġtantas":6876,"Ġinmediato":6877,"Ġapartado":6878,"Ġclases":6879,"Ġsolicitado":6880,"ĠÃ¡rbol":6881,"Ġgira":6882,"cing":6883,"Ġoriginal":6884,"ĠGrecia":6885,"Ġcero":6886,"Ã¡cti":6887,"Ġalar":6888,"ĠAlcal":6889,"Ġanuales":6890,"Ġsituada":6891,"Ġtranspar":6892,"Ġatre":6893,"ĠalcanzÃ³":6894,"ĠJudicial":6895,"iro":6896,"Ġvul":6897,"Ġcoh":6898,"ĠRep":6899,"Ġpiensa":6900,"ĠcontrataciÃ³n":6901,"ĠllegarÃ¡":6902,"Ġaplicar":6903,"Ġjuzgados":6904,"Bar":6905,"Ã³p":6906,"Ġmara":6907,"Ġcomicios":6908,"ĠLes":6909,"Ġcitado":6910,"ĠdaÃ±o":6911,"Ġresponde":6912,"Ġinvierno":6913,"ĠtecnologÃŃas":6914,"ĠinauguraciÃ³n":6915,"uidos":6916,"quist":6917,"Ġresuel":6918,"Ġcerem":6919,"Ġministros":6920,"Ġpudiera":6921,"ĠEduardo":6922,"intena":6923,"Ġfiscales":6924,"ai":6925,"eg":6926,"quera":6927,"ĠAC":6928,"olas":6929,"Ġsiente":6930,"Ġexhibi":6931,"ĠFor":6932,"ĠpermitiÃ³":6933,"Ġpostura":6934,"Ġapuntado":6935,"Ġdrogas":6936,"og":6937,"ure":6938,"Ġfallo":6939,"ĠCasi":6940,"Ġbanc":6941,"Ġestudiar":6942,"Ġinvestigaciones":6943,"ĠtÃ©cnicas":6944,"ĠUnicaja":6945,"diales":6946,"ĠEmer":6947,"guas":6948,"ĠPSPV":6949,"ĠdebÃŃa":6950,"Ġamplio":6951,"ĠcrÃŃtica":6952,"Ġbomba":6953,"Ġmonum":6954,"Respecto":6955,"lismo":6956,"ĠvÃŃdeo":6957,"ĠSenado":6958,"ĠRicardo":6959,"Ġpatrocin":6960,"ĠPri":6961,"segui":6962,"Ġsocio":6963,"Ġpiso":6964,"ortun":6965,"Ġdescono":6966,"Ġretra":6967,"ĠAsuntos":6968,"ĠPress":6969,"RO":6970,"bral":6971,"ĠAi":6972,"vill":6973,"Ġacel":6974,"ĠReina":6975,"Ġcapaces":6976,"ĠRaÃºl":6977,"ĠColegio":6978,"crim":6979,"ega":6980,"Ã±i":6981,"ĠprÃ©st":6982,"Ġcampos":6983,"Ġvivido":6984,"ĠsabÃŃa":6985,"Ġtelevi":6986,"Ġremont":6987,"hay":6988,"Ġrece":6989,"ĠcÃ¡mara":6990,"Ġlicencia":6991,"ĠdÃ©biles":6992,"utas":6993,"ciantes":6994,"Ġmarcar":6995,"Ġ55":6996,"Ġrecibe":6997,"Ġbanquillo":6998,"Ġdesign":6999,"Ġasesinato":7000,"Ġserio":7001,"Ġconsta":7002,"Ġ39":7003,"Ġsalas":7004,"ĠcÃ¡maras":7005,"enten":7006,"Ġbille":7007,"Ġ195":7008,"ĠcirculaciÃ³n":7009,"ty":7010,"diat":7011,"Ġreve":7012,"Ġrestaurantes":7013,"Ġacredi":7014,"ccidental":7015,"icen":7016,"Ġviajes":7017,"Ġfeliz":7018,"Ġresidentes":7019,"ĠNue":7020,"ĠEstos":7021,"Ġvictorias":7022,"ĠestratÃ©":7023,"Ġasturi":7024,"Ġcertamen":7025,"ĠobligaciÃ³n":7026,"Ġcubrir":7027,"ĠcÃº":7028,"ĠsÃ³":7029,"Ã³s":7030,"tible":7031,"ĠMichael":7032,"garse":7033,"Ġcarb":7034,"Ġcualquiera":7035,"Ġdirigida":7036,"Ġexige":7037,"guirre":7038,"ĠDaniel":7039,"ket":7040,"ĠcontÃ³":7041,"ĠsituÃ³":7042,"ĠprovocÃ³":7043,"lÃ©tico":7044,"ĠCuer":7045,"untamente":7046,"Ġconseller":7047,"Ġdestacar":7048,"Ġnormas":7049,"Ġsirve":7050,"ĠGil":7051,"Ġrelacionados":7052,"ĠocupaciÃ³n":7053,"ĠconexiÃ³n":7054,"Ġmort":7055,"Ġequip":7056,"Ġespectacular":7057,"Ġtienda":7058,"Ġllegue":7059,"Ġcontinuidad":7060,"Ġgastron":7061,"Ġdespren":7062,"Ġasumir":7063,"Ã¡m":7064,"ĠDa":7065,"Ġabst":7066,"Ġnecesitan":7067,"Ġaprovechar":7068,"Ġindependencia":7069,"enti":7070,"Ġestatu":7071,"Ġjuegos":7072,"Ġtranspor":7073,"ĠvaloraciÃ³n":7074,"Ġpatronal":7075,"Ġtestim":7076,"Ġexpectativas":7077,"ĠBruselas":7078,"Ġlater":7079,"ans":7080,"Ġportero":7081,"mista":7082,"Ġliqui":7083,"Ġasistir":7084,"ĠRepÃºblica":7085,"48":7086,"eos":7087,"Ġpod":7088,"Ġcreen":7089,"trado":7090,"Ġjuega":7091,"ĠLorenzo":7092,"tzale":7093,"Ġnovedades":7094,"ĠduraciÃ³n":7095,"Ġrespaldo":7096,"Ġmecan":7097,"Ġinju":7098,"ĠMolina":7099,"Ġconsciente":7100,"Ġdemuestra":7101,"Ġfruto":7102,"ĠplÃ¡":7103,"ĠfÃ³rmula":7104,"ĠTemp":7105,"ĠresultÃ³":7106,"Ġ1999":7107,"ĠsÃ©pti":7108,"ĠrevisiÃ³n":7109,"urinho":7110,"Ġcocin":7111,"aliciÃ³n":7112,"ĠPaz":7113,"Ġsoluciones":7114,"Son":7115,"ĠCÃ³rdoba":7116,"SJ":7117,"Ġfes":7118,"ĠmociÃ³n":7119,"ĠpresentarÃ¡":7120,"Ġaparcamiento":7121,"Ġcomenzaron":7122,"Ġclima":7123,"Ġtabaco":7124,"ĠHu":7125,"Ġcontrolar":7126,"ĠOrihuela":7127,"Ġcastellano":7128,"orÃŃa":7129,"Ã³stico":7130,"ticos":7131,"ĠSobre":7132,"ĠcalificÃ³":7133,"ĠraÃŃz":7134,"ear":7135,"uero":7136,"Ġcomprob":7137,"terios":7138,"Ġintegrantes":7139,"Ġgerente":7140,"Ġpanorama":7141,"38":7142,"garon":7143,"ĠBatasuna":7144,"llÃ³":7145,"ĠjugÃ³":7146,"Ġalquiler":7147,"dora":7148,"zcan":7149,"Ġcens":7150,"Ġmodelos":7151,"Ġfactor":7152,"ĠMallorca":7153,"Ġ47":7154,"PA":7155,"Ġfle":7156,"Ġestatal":7157,"ĠAten":7158,"ĠRio":7159,"Ã³mica":7160,"Ġconsejera":7161,"Ġclubes":7162,"Ġconductores":7163,"Ġcontexto":7164,"ĠEuskadi":7165,"Ġdecenas":7166,"puz":7167,"ĠMarina":7168,"Ġconsoli":7169,"Ġdirectiva":7170,"ĠacusaciÃ³n":7171,"Ġregreso":7172,"Ġgratui":7173,"ĠAlfredo":7174,"49":7175,"Ante":7176,"clo":7177,"eto":7178,"ĠCada":7179,"ĠAp":7180,"lip":7181,"Ġcasco":7182,"olÃ³gicas":7183,"ĠCultural":7184,"Ġhabituales":7185,"ĠgustarÃŃa":7186,"Ġimprescindi":7187,"Ġelevado":7188,"ienda":7189,"Ġpin":7190,"ĠMario":7191,"pula":7192,"ĠAyer":7193,"ribunales":7194,"Ġtradicionales":7195,"Ġincumpli":7196,"bana":7197,"ĠcÃ¡ncer":7198,"ĠBra":7199,"ĠImp":7200,"Ġimpi":7201,"Ġlujo":7202,"Ġcomenzado":7203,"Ã¡bamos":7204,"Todos":7205,"Ġsensi":7206,"ĠhectÃ¡":7207,"ĠTampoco":7208,"jeta":7209,"Ġtareas":7210,"ĠconcesiÃ³n":7211,"ĠJackson":7212,"Ġcomparecencia":7213,"ĠhÃ¡bi":7214,"ezuela":7215,"Ġpermiso":7216,"ĠKi":7217,"gul":7218,"erÃŃas":7219,"anci":7220,"vila":7221,"ĠRÃŃo":7222,"ĠTrans":7223,"Ġinteran":7224,"Ġtemperaturas":7225,"Ġbandera":7226,"cisamente":7227,"Ġlluvias":7228,"orÃ¡n":7229,"quete":7230,"ĠCerv":7231,"Ġliga":7232,"ĠmÃŃnima":7233,"Ġimpuso":7234,"Ġbomberos":7235,"ĠHerrera":7236,"Ġcircunstancia":7237,"ĠBenidorm":7238,"ĠGan":7239,"Ġvisitar":7240,"ĠProtecciÃ³n":7241,"Ġsostiene":7242,"Ġsupera":7243,"todos":7244,"onante":7245,"Ġsentir":7246,"Ġ800":7247,"ĠGuti":7248,"ĠBara":7249,"ĠRoja":7250,"Ġsolicitar":7251,"koa":7252,"65":7253,"mor":7254,"Ġincom":7255,"vile":7256,"denes":7257,"ĠcerrÃ³":7258,"ĠUnidad":7259,"Ġcomerci":7260,"Ġsimilares":7261,"grana":7262,"Ġembajador":7263,"ĠEscuela":7264,"IP":7265,"cro":7266,"Ġais":7267,"ĠpodÃŃan":7268,"Ġfines":7269,"Ġgolf":7270,"Ġestablecido":7271,"ĠÃ³rganos":7272,"Ġpropone":7273,"Ġanalizar":7274,"ĠDepartamento":7275,"ĠNoche":7276,"Ġintelectu":7277,"Ġsexual":7278,"ĠAutÃ³noma":7279,"inete":7280,"tela":7281,"Ġapel":7282,"Ġsacri":7283,"crito":7284,"37":7285,"cinco":7286,"Ġviajeros":7287,"Ġelaborado":7288,"ĠfÃŃsica":7289,"Ġdescub":7290,"grÃ¡fico":7291,"yeron":7292,"Ġjunta":7293,"ĠperÃŃo":7294,"Ġprestaciones":7295,"Ġavance":7296,"Ġdispositivo":7297,"IS":7298,"Ġproductor":7299,"Ġponerse":7300,"Ġafili":7301,"Ġrepetir":7302,"ĠVÃŃctor":7303,"ĠDis":7304,"Ġposiciones":7305,"ĠAngel":7306,"ĠturÃŃstico":7307,"Ġpreparado":7308,"ĠDeportes":7309,"ĠOro":7310,"Ġnacido":7311,"ĠllevarÃ¡":7312,"ĠtomÃ³":7313,"Ġmovimientos":7314,"ĠtrÃ¡mites":7315,"Ġvecin":7316,"Ġcalor":7317,"Ġquedaron":7318,"Ġruta":7319,"Ġintervenciones":7320,"Ġabogados":7321,"ĠAllÃŃ":7322,"ĠEstatuto":7323,"Ġenga":7324,"Ġmexic":7325,"Ġpresos":7326,"udaciÃ³n":7327,"ĠmodificaciÃ³n":7328,"gh":7329,"Ġcomenta":7330,"cau":7331,"Ġcarreras":7332,"Ġagente":7333,"ĠCristo":7334,"ĠreacciÃ³n":7335,"Ġtum":7336,"Ġhar":7337,"ĠGor":7338,"Ġlitros":7339,"Ġdesarrollado":7340,"Ġplantea":7341,"ĠPeÃ±a":7342,"Ġdestinado":7343,"Ġadquirir":7344,"ĠOrganizaciÃ³n":7345,"Ġvestu":7346,"mpe":7347,"ĠEsp":7348,"Ġluchar":7349,"Ġdesemple":7350,"Ġmoral":7351,"lera":7352,"pista":7353,"Ġine":7354,"ĠIVA":7355,"Ġdestacan":7356,"Ġleyes":7357,"ĠRacing":7358,"Ġfotos":7359,"tador":7360,"vir":7361,"mato":7362,"Ġcontamin":7363,"ĠprevenciÃ³n":7364,"ĠEsa":7365,"Ġencant":7366,"arrollo":7367,"Ġbases":7368,"Ġcelebrada":7369,"Ġadvierte":7370,"Ġempieza":7371,"ĠautomÃ³":7372,"ĠDolores":7373,"gamos":7374,"osas":7375,"legal":7376,"Ġcrecer":7377,"Ġtranscur":7378,"Ġcolegios":7379,"ĠCeuta":7380,"BA":7381,"rÃ©":7382,"ĠTri":7383,"Ġjuvenil":7384,"Ġcumplimiento":7385,"Ġvisitante":7386,"bla":7387,"ĠEle":7388,"ĠAntes":7389,"cionada":7390,"ĠIgual":7391,"Ġiniciar":7392,"ĠdefendiÃ³":7393,"ĠExtre":7394,"ĠvolverÃ¡":7395,"mÃ¡tica":7396,"Ġpul":7397,"pecial":7398,"An":7399,"Ġcel":7400,"Ġconferencia":7401,"Estamos":7402,"Ġplani":7403,"Ġpintura":7404,"ĠFuerzas":7405,"ĠDele":7406,"Ġdepende":7407,"Ġtanta":7408,"Ġfumar":7409,"47":7410,"Fin":7411,"Otro":7412,"enos":7413,"Ġingeni":7414,"Ġinternet":7415,"Ġmod":7416,"Ġpeat":7417,"kozy":7418,"ĠSeÃ±":7419,"ĠagregÃ³":7420,"lavega":7421,"ias":7422,"Ġfres":7423,"ĠreÃºn":7424,"ĠEstÃ¡":7425,"ĠfusiÃ³n":7426,"Ġvigilancia":7427,"Ch":7428,"Ġtribunales":7429,"entro":7430,"Ġhabili":7431,"Ġnacimiento":7432,"Ġponen":7433,"sula":7434,"III":7435,"Ġlengua":7436,"Ġenla":7437,"uirÃ¡":7438,"Ġsonri":7439,"Ġvenir":7440,"Ġutilizado":7441,"cÃ³n":7442,"Ġsant":7443,"ĠAlmerÃŃa":7444,"ĠautonÃ³micas":7445,"Ġnovedad":7446,"ĠelaboraciÃ³n":7447,"Ġargumento":7448,"ciende":7449,"adÃ©":7450,"ult":7451,"Ġculmin":7452,"ĠMundo":7453,"ĠaprovechÃ³":7454,"ĠdenunciÃ³":7455,"Ġdenunciado":7456,"Ġajuste":7457,".'":7458,"39":7459,"tene":7460,"Ġcumbre":7461,"Ġcuota":7462,"Ġquinta":7463,"landa":7464,"Ġ46":7465,"Ġsalvar":7466,"ĠÃģfrica":7467,"Ġregistraron":7468,"ĠHace":7469,"ĠexpresiÃ³n":7470,"ĠfotografÃŃas":7471,"madura":7472,"ervar":7473,"ĠSegura":7474,"Ġmascul":7475,"Ġparlamentario":7476,"Ġsufre":7477,"Ġmirada":7478,"mbo":7479,"Ġcercano":7480,"Ġinstitucional":7481,"Ġaviso":7482,"ĠbrasileÃ±o":7483,"Ġcontras":7484,"Ġrealizan":7485,"Ġentrenamiento":7486,"Ġencontraban":7487,"Ġsuelen":7488,"ĠVenezuela":7489,"Ġaceler":7490,"The":7491,"Ġdebemos":7492,"Ġviajar":7493,"Ġprocesos":7494,"Ġromper":7495,"vul":7496,"Ġvenci":7497,"ĠciudadanÃŃa":7498,"ĠJosep":7499,"Ġtemporadas":7500,"ĠofreciÃ³":7501,"ĠPresupuestos":7502,"ĠPos":7503,"Ġilegal":7504,"Ġempu":7505,"Ġtej":7506,"Ġcompletamente":7507,"JosÃ©":7508,"Ġflamen":7509,"Ġsuceso":7510,"Ġreque":7511,"Ġben":7512,"untas":7513,"ĠTal":7514,"Ġexpor":7515,"ĠOn":7516,"ĠlegislaciÃ³n":7517,"Ġtranquilidad":7518,"Ġfirmas":7519,"Antes":7520,"Di":7521,"colo":7522,"Ġlleno":7523,"ĠMich":7524,"genda":7525,"Ġafectado":7526,"Ġdeterminar":7527,"Ġnegativa":7528,"Ġacostumb":7529,"ĠLan":7530,"Ġdesvel":7531,"ĠJuegos":7532,"Ġcielo":7533,"guay":7534,"Ġgenerar":7535,"Ġconciencia":7536,"Ġtropas":7537,"Ġdigital":7538,"ix":7539,"ĠCel":7540,"ĠIni":7541,"uses":7542,"ĠArte":7543,"Ġquedarse":7544,"ĠRegional":7545,"ĠAtlÃ©tico":7546,"brio":7547,"vesti":7548,"zi":7549,"Ġoeste":7550,"Ġsober":7551,"Ġresponder":7552,"Ġconcluye":7553,"Ġnuboso":7554,"ÃŃvo":7555,"ĠAgui":7556,"Ġtoca":7557,"Ġseguimiento":7558,"Ġaudiencia":7559,"Pese":7560,"Ġalarma":7561,"emente":7562,"Ġrealizando":7563,"Ġprivile":7564,"EspaÃ±a":7565,"ĠdifÃŃciles":7566,"Ġcompromisos":7567,"FA":7568,"Nos":7569,"quel":7570,"Ġcobrar":7571,"usa":7572,"ĠEstudi":7573,"ĠGuadal":7574,"Ġalcohol":7575,"erras":7576,"questa":7577,"Ġpresuntos":7578,"Ġdiscur":7579,"Ã³mico":7580,"Ġcamise":7581,"Ġpropietario":7582,"Ġlabora":7583,"Ġsorteo":7584,"uentes":7585,"Ġende":7586,"Ġexpon":7587,"Ġmediados":7588,"Ġtrascen":7589,"ĠIng":7590,"ĠcÃ¡l":7591,"ĠCorea":7592,"Ġasesin":7593,"Ġhumi":7594,"Ġjugada":7595,"ĠMag":7596,"Ġ120":7597,"Ġruso":7598,"Ġmensajes":7599,"etrÃ³":7600,"Ġmarcas":7601,"Ġlitera":7602,"Ġequivo":7603,"Ġsegura":7604,"ĠaportaciÃ³n":7605,"ef":7606,"cual":7607,"ĠJulio":7608,"Ġsociedades":7609,"valos":7610,"ĠColom":7611,"ĠÃģlvaro":7612,"Ġpropici":7613,"ky":7614,"bios":7615,"ĠAguirre":7616,"Ġplayas":7617,"ĠXVI":7618,"Ġeuropeas":7619,"ĠsanciÃ³n":7620,"abellÃ³n":7621,"Par":7622,"onados":7623,"raciones":7624,"Ġparar":7625,"Ġtotalidad":7626,"Ġcosech":7627,"ĠIncluso":7628,"Ġrefuer":7629,"edor":7630,"Ġaeropuertos":7631,"Ġproteger":7632,"Ġnacionalidad":7633,"Ġemergencia":7634,"Ã¡l":7635,"ĠPu":7636,"Ġabra":7637,"ĠMourinho":7638,"ĠcomenzarÃ¡":7639,"Ġsuperiores":7640,"Ġprobablemente":7641,"Ġexclusi":7642,"Ġprovisional":7643,"diciÃ³n":7644,"ĠCli":7645,"Ġsimp":7646,"Ġexcesi":7647,"Ġrompi":7648,"Ġcriterios":7649,"Ġ250":7650,"Hace":7651,"ĠportuguÃ©s":7652,"ĠAcademia":7653,"dul":7654,"rari":7655,"teor":7656,"Ġjugue":7657,"inosa":7658,"Ġacusaciones":7659,"Ġparejas":7660,"Ġrendimiento":7661,"Mo":7662,"Ġagi":7663,"roga":7664,"Ġsuman":7665,"Ġexac":7666,"gata":7667,"ĠEsper":7668,"alizadas":7669,"Ġpieza":7670,"Ġfinancieras":7671,"Ġseguidores":7672,"Ġaportar":7673,"Ġsolidaridad":7674,"Ġrepublic":7675,"Ġact":7676,"Ġnaturales":7677,"Ġacudieron":7678,"Ġabsoluto":7679,"Ġpotencial":7680,"Ġmanifestaciones":7681,"ĠVivienda":7682,"Ġtono":7683,"oler":7684,"ĠLuego":7685,"onesa":7686,"Ġcartas":7687,"Ġprocedente":7688,"Ġconmem":7689,"Ġpersi":7690,"Ġexpul":7691,"Ġsuponen":7692,"ĠacudiÃ³":7693,"ĠVictoria":7694,"ĠmalagueÃ±o":7695,"Ġexcelente":7696,"ĠperÃŃodo":7697,"Ro":7698,"Ġdeterior":7699,"ĠFamili":7700,"Ġrefu":7701,"Ġcorrespondientes":7702,"ĠTorrelavega":7703,"cuenta":7704,"Ġabajo":7705,"Ġune":7706,"lie":7707,"Ġobtuvo":7708,"Ġcentrales":7709,"ĠLevante":7710,"Ġsuperado":7711,"Ġcomplement":7712,"Ġasistencias":7713,"Ġinmueble":7714,"tano":7715,"Ã¡frica":7716,"ĠEL":7717,"Ġaprobar":7718,"Ġaguant":7719,"cadores":7720,"ertzale":7721,"Ġsuyo":7722,"ĠTrÃ¡fico":7723,"guero":7724,"Ġ67":7725,"ĠâĢĵ":7726,"Ġhumana":7727,"Ġsiguientes":7728,"Ġpublicado":7729,"Ġextranjero":7730,"pri":7731,"pariciÃ³n":7732,"tres":7733,"venta":7734,"Ġmic":7735,"Ġene":7736,"unas":7737,"ĠMol":7738,"Ġcoca":7739,"Ġregiones":7740,"Ġcompetir":7741,"ĠprecisÃ³":7742,"Ġanoche":7743,"ĠcÃ¡ntabro":7744,"Ġadvertido":7745,"95":7746,"Ġtiendas":7747,"Ġtrazado":7748,"Ã©ndez":7749,"puestamente":7750,"Ġirre":7751,"Ġafectadas":7752,"Ġgusto":7753,"ĠMinistros":7754,"puzkoa":7755,"cÃ¡r":7756,"ĠCO":7757,"Ġtratado":7758,"Ġdejan":7759,"Ġiniciado":7760,"Ġdirigir":7761,"ĠcooperaciÃ³n":7762,"Ġdie":7763,"abe":7764,"Ġactivos":7765,"Ġsole":7766,"ĠmarcÃ³":7767,"Ġapuntan":7768,"Ġfrontera":7769,"300":7770,"cteri":7771,"fu":7772,"Ġapa":7773,"Ġmira":7774,"ĠAlta":7775,"ĠPaco":7776,"Ġescribir":7777,"ĠtÃŃp":7778,"Ġdependencias":7779,"Ġrefleja":7780,"Ġaceptar":7781,"ĠConstitucional":7782,"Ġferrovi":7783,"DE":7784,"icciÃ³n":7785,"ĠConfe":7786,"ĠAsamblea":7787,"Ġescolar":7788,"Com":7789,"UE":7790,"Ġocupar":7791,"Ġvieron":7792,"Ġvence":7793,"Ġtriple":7794,"ĠDesarrollo":7795,"Ġcatalana":7796,"Ġrecomenda":7797,"ĠIrlanda":7798,"Ġceremonia":7799,"RE":7800,"ĠsecciÃ³n":7801,"Ġpiel":7802,"ĠvotaciÃ³n":7803,"ĠautonomÃŃa":7804,"Ġverdadera":7805,"ĠSarkozy":7806,"ĠÃ¡nimo":7807,"Ġaproximadamente":7808,"ĠExtremadura":7809,"Ġechar":7810,"gieron":7811,"ĠsalÃ³n":7812,"itÃŃ":7813,"ĠXa":7814,"Ġofertas":7815,"Ci":7816,"Ġllevaron":7817,"Ġacusados":7818,"Ġhoteles":7819,"ĠurbanizaciÃ³n":7820,"Ġfundament":7821,"Ġperfectamente":7822,"etrÃ³leo":7823,"44":7824,"Hemos":7825,"queza":7826,"ĠmÃºlti":7827,"dicto":7828,"Ġsuficientes":7829,"ĠLuna":7830,"Ġvigente":7831,"Ã©rrez":7832,"ctur":7833,"Ġllamar":7834,"ĠposesiÃ³n":7835,"Ġaumentado":7836,"busti":7837,"ĠhectÃ¡reas":7838,"AC":7839,"Ġenf":7840,"Ġayuntamiento":7841,"uenca":7842,"ĠsiguiÃ³":7843,"Ġbrilla":7844,"Ġresponsabilidades":7845,"ĠrÃ¡pida":7846,"Ġinsu":7847,"Ġaplica":7848,"Ġteat":7849,"Ġpermiten":7850,"Ġconvivencia":7851,"Ġsucedido":7852,"ĠcriticÃ³":7853,"yer":7854,"Ġmeter":7855,"Ġdefendido":7856,"ĠSierra":7857,"ĠJapÃ³n":7858,"ĠGipuzkoa":7859,"burgo":7860,"Ġsensa":7861,"ĠacadÃ©":7862,"Ġmirar":7863,"ĠprestaciÃ³n":7864,"llera":7865,"ĠrespondiÃ³":7866,"ĠprofesiÃ³n":7867,"Ġampliar":7868,"ÃŃnguez":7869,"Ġindis":7870,"feo":7871,"Ġinteresante":7872,"Ġmuestran":7873,"ambre":7874,"ĠInform":7875,"Ġofrecen":7876,"Ġcompartir":7877,"ĠintentÃ³":7878,"Ġseguida":7879,"Ġpapeles":7880,"ĠTerri":7881,"ĠServicios":7882,"ĠNew":7883,"Ġincluidos":7884,"ĠAznar":7885,"ĠaÃ©reo":7886,"Ġaconse":7887,"Ġliteratura":7888,"ph":7889,"dral":7890,"ĠSalgado":7891,"Ġtelef":7892,"ĠautorizaciÃ³n":7893,"GO":7894,"Hoy":7895,"Ġreina":7896,"urado":7897,"ĠRubi":7898,"ĠmuriÃ³":7899,"ĠNu":7900,"Ġplazos":7901,"ĠclÃŃn":7902,"Ġincluir":7903,"Ġcometido":7904,"ĠagresiÃ³n":7905,"ĠexplosiÃ³n":7906,"ÃŃes":7907,"ĠFondo":7908,"ĠrealizaciÃ³n":7909,"Ġpresentada":7910,"Ġcaracteri":7911,"Ġespecialistas":7912,"ĠlamentÃ³":7913,"ĠautobÃºs":7914,"ĠcapÃŃtulo":7915,"46":7916,"dele":7917,"ĠCla":7918,"ĠEu":7919,"dador":7920,"guna":7921,"ĠBarre":7922,"ĠexpresÃ³":7923,"Ġelimina":7924,"Ġenfermedades":7925,"Ġirregul":7926,"leza":7927,"Ġparticulares":7928,"clar":7929,"ĠRevilla":7930,"Ġpies":7931,"Ġregular":7932,"estÃ¡":7933,"Ġextraordinario":7934,"ĠrestauraciÃ³n":7935,"ĠtramitaciÃ³n":7936,"ĠEmilio":7937,"Ġtasas":7938,"ÃŃvot":7939,"Ex":7940,"Uno":7941,"ulaciÃ³n":7942,"cionÃ³":7943,"oncesto":7944,"Ġcuartos":7945,"Ġrecorrer":7946,"ĠfotografÃŃa":7947,"ĠMora":7948,"Ġtraspas":7949,"Ġcere":7950,"Ġfranqui":7951,"Ġconcejala":7952,"ĠcategorÃŃas":7953,"ĠbritÃ¡nica":7954,"ĠartÃŃculos":7955,"laterra":7956,"ĠCre":7957,"ĠSport":7958,"ĠBu":7959,"Ġexpuls":7960,"irman":7961,"Ġ41":7962,"Ġconsigue":7963,"ĠSantos":7964,"Ġlanzamiento":7965,"ĠEm":7966,"ÃŃnsula":7967,"Ġmercan":7968,"ĠprevisiÃ³n":7969,"Ġmaltra":7970,"Ġfilas":7971,"Ġdificultad":7972,"Ġreferente":7973,"Ġarquitecto":7974,"ĠAgust":7975,"ĠHan":7976,"Ġdejaron":7977,"ĠXI":7978,"Ġgole":7979,"ĠadmitiÃ³":7980,"Ġepiso":7981,"Ġsubvenciones":7982,"Ġcena":7983,"omet":7984,"Ġquiera":7985,"ĠCons":7986,"Ġorganiza":7987,"ĠPaul":7988,"Ġcuarenta":7989,"Ġinfraestructura":7990,"ĠfenÃ³meno":7991,"sÃ³":7992,"allas":7993,"unciÃ³n":7994,"Ġhun":7995,"diera":7996,"Ġinoc":7997,"ducciÃ³n":7998,"berg":7999,"ĠKo":8000,"Ġcomerciantes":8001,"Ġaprobada":8002,"Ġestreno":8003,"Ġcolocar":8004,"Ġguardia":8005,"ĠcuÃ¡l":8006,"Ġmusul":8007,"nter":8008,"Ġtorm":8009,"Ã¡rez":8010,"Ġsupuestamente":8011,"Ġprepara":8012,"ĠComun":8013,"ĠRoberto":8014,"Ġcolores":8015,"ĠincorporaciÃ³n":8016,"Ġconlle":8017,"Ġconstit":8018,"Ġhagan":8019,"Ġinicialmente":8020,"Ġgravedad":8021,"Ġelemento":8022,"Otra":8023,"Ġpala":8024,"Ã¡mica":8025,"Ġespi":8026,"ĠCir":8027,"Ãºcle":8028,"ĠLar":8029,"llado":8030,"Ġdom":8031,"Ġmane":8032,"Ġbajar":8033,"Ġhablando":8034,"ĠcapitÃ¡n":8035,"ĠRubÃ©n":8036,"ĠconservaciÃ³n":8037,"Ġsuces":8038,"ĠOO":8039,"Ġdescubri":8040,"Ġalternativas":8041,"Ġimpedir":8042,"Ġbicicle":8043,"99":8044,"jados":8045,"Ġlistas":8046,"tios":8047,"riendo":8048,"Ã¡nica":8049,"Ġpreferi":8050,"Ġcarne":8051,"ÃŃnea":8052,"âĢĶ":8053,"arreal":8054,"Ġfrase":8055,"85":8056,"depen":8057,"ung":8058,"Ġpermita":8059,"Ġsahara":8060,"Ġterminado":8061,"Ġmoderni":8062,"ĠreflexiÃ³n":8063,"Ġcoordinador":8064,"ĠOrdenaciÃ³n":8065,"Ġlech":8066,"inaria":8067,"Ġsim":8068,"ĠTu":8069,"Ġcontactos":8070,"ĠdeberÃŃan":8071,"ĠPlata":8072,"Ġfracaso":8073,"Ġenmi":8074,"ĠCreo":8075,"Ġdesgra":8076,"Ġreserva":8077,"Ġcontene":8078,"Ġfinalizar":8079,"ficiencia":8080,"Ġansi":8081,"ĠXavi":8082,"31":8083,"ĠLin":8084,"ĠcaÃŃdo":8085,"ĠDelegaciÃ³n":8086,"UR":8087,"Ġcem":8088,"Ġrepor":8089,"daba":8090,"eratura":8091,"ĠpasiÃ³n":8092,"ĠÃ©stos":8093,"Ġdefiende":8094,"Ġbasura":8095,"ĠDerecho":8096,"wa":8097,"Ġeva":8098,"Ġsuici":8099,"ĠPese":8100,"Ġperpe":8101,"Ġconsecutivo":8102,"Ġtestigos":8103,"Ġlabores":8104,"ĠpetrÃ³leo":8105,"Ġmono":8106,"Ġfarma":8107,"Ġparecen":8108,"Ġnoctur":8109,"Ġtocar":8110,"Ġprevia":8111,"ĠsupondrÃ¡":8112,"Ġaprender":8113,"Ġdeposi":8114,"Ġdesempleados":8115,"Ġlon":8116,"ĠReg":8117,"ĠestarÃŃa":8118,"ĠCuba":8119,"Ġsanciones":8120,"Ġautobuses":8121,"ĠDomingo":8122,"uto":8123,"Ġidi":8124,"Ġtrato":8125,"grÃ¡fic":8126,"Ġreforzar":8127,"Ġrelacionadas":8128,"ĠimplantaciÃ³n":8129,"astre":8130,"rella":8131,"Ġga":8132,"Ġgesto":8133,"ĠquizÃ¡s":8134,"ĠgarantÃŃas":8135,"Ġmultitud":8136,"Ġliderazgo":8137,"ĠRioja":8138,"mol":8139,"Ġactivo":8140,"Ġprobable":8141,"ĠGutiÃ©rrez":8142,"400":8143,"daje":8144,"derÃ³n":8145,"ĠnegÃ³":8146,"Ġvoces":8147,"ĠconclusiÃ³n":8148,"600":8149,"Ġdud":8150,"Ġcuyas":8151,"Ġreserv":8152,"ĠInte":8153,"Ġargumentos":8154,"Ġmandatario":8155,"Ġimpulsar":8156,"ĠinnovaciÃ³n":8157,"cÃ¡rcel":8158,"Ġimplica":8159,"Ġ52":8160,"Ġpriori":8161,"ĠCortes":8162,"ĠprÃ¡cticas":8163,"Ġsexuales":8164,"Ġfiguras":8165,"ĠÃĵscar":8166,"bamos":8167,"ft":8168,"ĠÃº":8169,"Ã©is":8170,"urar":8171,"certi":8172,"ĠSanz":8173,"ĠautovÃŃa":8174,"Ġinsiste":8175,"Ġsueldo":8176,"Ġpiedra":8177,"Ġhalla":8178,"amb":8179,"Ġpertene":8180,"Ġtienes":8181,"Ġbio":8182,"Ġllamadas":8183,"Ġexpresado":8184,"ĠmÃŃnimos":8185,"Ġobtenido":8186,"Ġtrenes":8187,"Ġelectorales":8188,"gros":8189,"Ġran":8190,"Ġpaga":8191,"Ġpubl":8192,"ĠBelÃ©n":8193,"ĠPÃºblicas":8194,"Ġrequiere":8195,"Ten":8196,"Ġparro":8197,"Ġpoeta":8198,"Ġconocidos":8199,"Ġenviado":8200,"Ġpublici":8201,"ĠInglaterra":8202,"42":8203,"ordi":8204,"Ġdul":8205,"tual":8206,"Ġempleos":8207,"Ġentrenamientos":8208,"ĠPatrimonio":8209,"Ġmuestras":8210,"ĠmontaÃ±a":8211,"idas":8212,"tza":8213,"ĠPleno":8214,"aris":8215,"Ġpagos":8216,"licos":8217,"Ġsalario":8218,"ĠPolÃŃtica":8219,"Ġalemana":8220,"versal":8221,"Ġorgullos":8222,"Ã¨":8223,"Ġestructu":8224,"ĠmetÃ¡":8225,"Ġequival":8226,"Ġrojo":8227,"Ġasimismo":8228,"ney":8229,"ĠJaime":8230,"Ġpelota":8231,"liso":8232,"Ã³logos":8233,"Ġmedioambi":8234,"ĠXV":8235,"Ġdesaf":8236,"Ġfactores":8237,"Ġilust":8238,"ĠinterpretaciÃ³n":8239,"ĠsirviÃ³":8240,"Ġalmacen":8241,"Ġtabla":8242,"ster":8243,"Ġhumo":8244,"Ġsupo":8245,"ĠRamos":8246,"Ġimpulso":8247,"Ġjugado":8248,"Ġpira":8249,"medio":8250,"Ġfutura":8251,"Ġilumin":8252,"ĠrefiriÃ³":8253,"Ġlegales":8254,"Ġcomponente":8255,"Ġarena":8256,"entaciÃ³n":8257,"Ġgeo":8258,"Ġ85":8259,"Ġpalent":8260,"Ġseleccion":8261,"erial":8262,"Ġobst":8263,"ositor":8264,"file":8265,"Ġacabado":8266,"Ġdefinitivamente":8267,"Ġreflexi":8268,"Ġprioridad":8269,"ĠSudÃ¡frica":8270,"ĠcocaÃŃna":8271,"66":8272,"ĠnÃºcle":8273,"Ġvideo":8274,"Ġexistentes":8275,"Ġfeder":8276,"Ġexigir":8277,"Ġhospitales":8278,"800":8279,"CV":8280,"plica":8281,"ĠrealizarÃ¡":8282,"Ġriqueza":8283,"Ġcomercios":8284,"Ġsufren":8285,"ĠadelantÃ³":8286,"Ġalicantino":8287,"Ġalter":8288,"dumbre":8289,"Ġmerece":8290,"Ġregionales":8291,"ĠPSC":8292,"ĠToro":8293,"ĠmÃŃnimas":8294,"ĠSocialista":8295,"Ġmurciano":8296,"ĠregulaciÃ³n":8297,"Ġdejando":8298,"ĠPepe":8299,"Ġetc":8300,"Ġatribuy":8301,"cara":8302,"Ġsesiones":8303,"ombi":8304,"dura":8305,"ĠHar":8306,"Ġexposiciones":8307,"Ġpusieron":8308,"Ġbarrios":8309,"ĠHaitÃŃ":8310,"glesias":8311,"Estos":8312,"Ġprivadas":8313,"Ġcapitales":8314,"Ġrequisitos":8315,"Ġmando":8316,"dista":8317,"Ġsiento":8318,"Ġmadera":8319,"Ġparticipan":8320,"ĠhablÃ³":8321,"Ġregresar":8322,"Ġperfecto":8323,"ĠtrÃ¡mite":8324,"Ġcrimen":8325,"ĠEntonces":8326,"ĠVI":8327,"Ġcrist":8328,"Ġtrataba":8329,"Ġemisiones":8330,"Ġfundamentales":8331,"Ġretirar":8332,"dilla":8333,"ĠporterÃŃa":8334,"ezca":8335,"Ġarma":8336,"ĠGuardi":8337,"ĠVillarreal":8338,"Ġazulgrana":8339,"ĠCampeonato":8340,"ĠtÃºn":8341,"Ġtarjeta":8342,"Ġnegoci":8343,"grama":8344,"Ġpiden":8345,"Ġpresidentes":8346,"ĠInstrucciÃ³n":8347,"Ãºsica":8348,"Ġcantidades":8349,"Ġplaneta":8350,"Ġconvocado":8351,"Ġabsolutamente":8352,"ĠDomÃŃnguez":8353,"rse":8354,"reos":8355,"Ġfeste":8356,"guera":8357,"ĠconfÃŃa":8358,"ĠdelegaciÃ³n":8359,"ĠadaptaciÃ³n":8360,"lisolet":8361,"32":8362,"Ġater":8363,"eso":8364,"Ġparado":8365,"Ġtramos":8366,"Ġverse":8367,"Ġtuvi":8368,"ĠllamÃ³":8369,"ĠaÃ±adir":8370,"Ġescolares":8371,"Del":8372,"Esto":8373,"Ġfur":8374,"capiÃ©":8375,"Ġcontes":8376,"Ġand":8377,"ĠdesapariciÃ³n":8378,"ĠPrÃŃncipe":8379,"ĠConfederaciÃ³n":8380,"wood":8381,"Ġactiva":8382,"Ġfili":8383,"Ġbajada":8384,"ĠpreparaciÃ³n":8385,"Ġatentados":8386,"Ġcorriente":8387,"Ġsimplemente":8388,"orada":8389,"Ġsexto":8390,"ĠSÃŃ":8391,"chada":8392,"rus":8393,"ĠHon":8394,"Ġpresentaron":8395,"Ġextin":8396,"Ġ112":8397,"ĠAdri":8398,"Ġherido":8399,"ĠcoordinaciÃ³n":8400,"Ġtestigo":8401,"68":8402,"CO":8403,"Âª":8404,"ĠcoaliciÃ³n":8405,"ĠRadio":8406,"Ġciru":8407,"ĠEstas":8408,"Ġchica":8409,"Ġclaus":8410,"ĠguiÃ³n":8411,"Fuentes":8412,"ĠMessi":8413,"mun":8414,"Ġagenda":8415,"estr":8416,"Ġnor":8417,"Ãºr":8418,"Ġacei":8419,"rimoni":8420,"Ġbiblio":8421,"ĠAlex":8422,"Ġdedicada":8423,"Ġsanitarios":8424,"Ġamenazas":8425,"ĠhincapiÃ©":8426,"Ġinteranual":8427,"posiciÃ³n":8428,"erten":8429,"Ã©u":8430,"Ġdigo":8431,"ĠclÃ¡sico":8432,"ĠharÃ¡n":8433,"ĠRonal":8434,"ĠRural":8435,"cura":8436,"Ġconsiste":8437,"Ġrecibieron":8438,"Ġbuscando":8439,"Ġordenador":8440,"Ġrecuperado":8441,"Ġguardias":8442,"Ġincidente":8443,"Ġplano":8444,"ĠubicaciÃ³n":8445,"Ġrazon":8446,"ĠelÃ©ctrica":8447,"Ġdisponible":8448,"Fran":8449,"Ġincluyen":8450,"Ġparticiparon":8451,"ĠfÃ¡brica":8452,"ĠÃīl":8453,"Ġinfluencia":8454,"ĠÃŃndice":8455,"Ġespalda":8456,"Ġmortales":8457,"Estas":8458,"uicios":8459,"Ã¡ndal":8460,"ĠRena":8461,"ĠpolÃŃg":8462,"Ġmejoras":8463,"Ġcanal":8464,"Ġobjetos":8465,"ĠconversaciÃ³n":8466,"Ġparcela":8467,"wit":8468,"Ġcombusti":8469,"Ġmaestro":8470,"ĠviviÃ³":8471,"Ġalcaldes":8472,"Ġaquello":8473,"Ġclaramente":8474,"Ġexplicaciones":8475,"Ã¼r":8476,"Ġgolpes":8477,"Ġdominio":8478,"Ġsombra":8479,"Ġpreparar":8480,"ĠimplicaciÃ³n":8481,"Ġmontaje":8482,"Ġlengu":8483,"ĠprohibiciÃ³n":8484,"Ġprimavera":8485,"fradÃŃa":8486,"AE":8487,"cÃ¡":8488,"gaba":8489,"Ġocta":8490,"tarras":8491,"Ġmerc":8492,"ĠMonte":8493,"Ġfunciona":8494,"Ġbote":8495,"Ġejercer":8496,"Ġprecisado":8497,"Ġincidentes":8498,"eamiento":8499,"Ġbares":8500,"presiÃ³n":8501,"Ġderrib":8502,"Ġsosten":8503,"Ġconclusiones":8504,"ĠObras":8505,"Ġdetalle":8506,"Ġpeticiones":8507,"vol":8508,"Ġmulta":8509,"ĠCine":8510,"ĠAÃ±o":8511,"renas":8512,"Ġjugando":8513,"Ġinmediata":8514,"SI":8515,"ticano":8516,"Ġfort":8517,"ĠincÃ³":8518,"Ġofrecido":8519,"ĠlÃŃmites":8520,"Ġhermana":8521,"ĠOriente":8522,"Ġpel":8523,"tienen":8524,"giado":8525,"Ġconvir":8526,"Ġbelleza":8527,"ĠcatÃ³":8528,"diatamente":8529,"lando":8530,"Ġsem":8531,"ĠMel":8532,"ĠTim":8533,"Ġsobres":8534,"Ġcrecido":8535,"Ġmanio":8536,"ĠCuatro":8537,"ĠÃ³rdenes":8538,"Ġmusicales":8539,"Ġeducativo":8540,"Ġfomentar":8541,"67":8542,"Madrid":8543,"Ser":8544,"Ġmales":8545,"denas":8546,"Ġvale":8547,"ĠNaciones":8548,"ĠCalderÃ³n":8549,"Ġpisos":8550,"Finalmente":8551,"Ġpic":8552,"dimientos":8553,"Ġdarse":8554,"ĠVol":8555,"Ġvallisolet":8556,"Ġdesarrolla":8557,"Ġtalento":8558,"Ġacogida":8559,"ĠkilÃ³metro":8560,"ligencias":8561,"aridades":8562,"cedes":8563,"Ġprevio":8564,"esen":8565,"estros":8566,"ĠMis":8567,"ĠSub":8568,"paje":8569,"ĠTecn":8570,"Ġcontado":8571,"Ġasamblea":8572,"Ġejecutivo":8573,"Ġbandas":8574,"Ġcuidado":8575,"iti":8576,"icÃ³p":8577,"ĠCajas":8578,"ĠPan":8579,"ĠLis":8580,"Ġsiga":8581,"Ġrural":8582,"Ġcompletar":8583,"Ġcandidata":8584,"ĠdemÃ³cra":8585,"Ġvascos":8586,"Ġlici":8587,"Ġsupuso":8588,"Ġreales":8589,"Ġiran":8590,"Ġbron":8591,"loj":8592,"ĠBuen":8593,"Ġexpan":8594,"Ġhorizo":8595,"Ġhacemos":8596,"Ġcorredor":8597,"Ġsubraya":8598,"Estoy":8599,"Ġconsultas":8600,"Ġatletas":8601,"ĠEmergencias":8602,"MA":8603,"uaciÃ³n":8604,"cirÃ¡":8605,"Ġalza":8606,"Ġinunda":8607,"Ġincerti":8608,"Ġtoque":8609,"ĠpasarÃ¡":8610,"cerdo":8611,"ĠpondrÃ¡":8612,"Ġinversores":8613,"Ġfallecidos":8614,"Ġbordo":8615,"stralia":8616,"ĠAmbos":8617,"dy":8618,"Ġcuel":8619,"ĠEfe":8620,"Ġinti":8621,"Ġediciones":8622,"Ġracha":8623,"Ġtemplo":8624,"Ġlograron":8625,"ĠgarantÃŃa":8626,"Ġblanca":8627,"Ġescala":8628,"dimos":8629,"Ġdelinc":8630,"ames":8631,"Ġinmen":8632,"ĠSh":8633,"Ġ--":8634,"Ġsaque":8635,"Ġconjunta":8636,"Ġorganismos":8637,"Ġreivindica":8638,"Ġaventura":8639,"ĠdimisiÃ³n":8640,"tt":8641,"ÃŃble":8642,"toÃ±o":8643,"ĠBom":8644,"Ġvidas":8645,"paÃ±as":8646,"Ġ700":8647,"ienden":8648,"Ġinstituto":8649,"Ġtrece":8650,"domin":8651,"cionamiento":8652,"listas":8653,"puzco":8654,"Ġabusos":8655,"ĠUnidas":8656,"Ġcincuenta":8657,"Ġprevistas":8658,"Ġorganizar":8659,"ĠacusÃ³":8660,"Ġcatalanes":8661,"Ġsindicales":8662,"nton":8663,"Ġvivo":8664,"Ã©sar":8665,"ĠAlto":8666,"Ġrock":8667,"Ġimputado":8668,"Ġtarifa":8669,"Ġregalos":8670,"Ġevacu":8671,"bera":8672,"ges":8673,"Ġses":8674,"ĠMus":8675,"ĠFÃºtbol":8676,"ĠAlgunos":8677,"Ġculp":8678,"ĠÃ¡ra":8679,"Ġnegociar":8680,"Ġrumbo":8681,"Ġsanitaria":8682,"Ġcoopera":8683,"mamente":8684,"Ġsuyos":8685,"Ġrean":8686,"Ġcomar":8687,"ĠÃ©xitos":8688,"Ġitaliana":8689,"ĠbebÃ©":8690,"pic":8691,"vÃ¡n":8692,"ĠMir":8693,"Ġcober":8694,"uestro":8695,"Ġrob":8696,"Ġesperando":8697,"Ġdesempe":8698,"Ġnombra":8699,"Ġatravi":8700,"luencia":8701,"onero":8702,"ritos":8703,"Ġguer":8704,"Ġentregar":8705,"verde":8706,"Ġauxi":8707,"Ġ58":8708,"ĠCampos":8709,"Ġmovilidad":8710,"ĠalimentaciÃ³n":8711,"ĠmantendrÃ¡":8712,"ĠresaltÃ³":8713,"ĠdueÃ±o":8714,"ĠCristiano":8715,"Ma":8716,"tran":8717,"use":8718,"Ġremar":8719,"Ġsimb":8720,"uelos":8721,"Ġsabido":8722,"ĠhelicÃ³p":8723,"100":8724,"Ã©l":8725,"ecÃŃan":8726,"Ġsucede":8727,"Ġlesi":8728,"Ġpistas":8729,"Ġlogra":8730,"ets":8731,"Ġasever":8732,"Ġbailar":8733,"Ġeventos":8734,"Ġsanidad":8735,"Ġescolta":8736,"ĠcariÃ±o":8737,"onista":8738,"entado":8739,"ĠCara":8740,"Ġreser":8741,"ĠcampaÃ±as":8742,"ĠsubiÃ³":8743,"Ġsolicitud":8744,"Ġprotagonismo":8745,"ĠFerrari":8746,"Ġemble":8747,"Ġremode":8748,"Ġparlamentarios":8749,"Ġparlamentaria":8750,"daron":8751,"fera":8752,"Ġreten":8753,"ĠBre":8754,"Ġ49":8755,"Ġproducen":8756,"ĠcanciÃ³n":8757,"Ġsalieron":8758,"Ġaparecen":8759,"Ġsacerdo":8760,"Ġnotable":8761,"Ġimplicados":8762,"Na":8763,"Ġacierto":8764,"Ġestancia":8765,"ĠSab":8766,"ĠLat":8767,"ezol":8768,"Ġfuga":8769,"Ġbolsa":8770,"Ġvasca":8771,"Ġdespacho":8772,"Ġacontecimientos":8773,"Ġsemifinales":8774,"ĠmÃºltiples":8775,"ibar":8776,"Ġcoger":8777,"Ġcreer":8778,"ĠValcÃ¡rcel":8779,"Ġimputados":8780,"Ġimprescindible":8781,"LA":8782,"gol":8783,"quilla":8784,"ĠjamÃ¡s":8785,"blan":8786,"Ġabertzale":8787,"gunas":8788,"Ġchicas":8789,"Ġfinancieros":8790,"Ġindef":8791,"Ġdisputar":8792,"ĠMorales":8793,"Ġvoluntarios":8794,"ĠPatr":8795,"llermo":8796,"Eso":8797,"zamientos":8798,"Ġpunta":8799,"ĠiP":8800,"Ġentusi":8801,"Ġorganizada":8802,"Ġdeclarar":8803,"Ġ1998":8804,"ĠespectÃ¡culos":8805,"Ġhistorias":8806,"ĠAgustÃŃn":8807,"IN":8808,"Ã¡vez":8809,"Ã³nicas":8810,"ĠAri":8811,"ĠÂ«Â¿":8812,"giendo":8813,"ĠVÃ¡zquez":8814,"Ġarque":8815,"Ġintervalos":8816,"Ġregalo":8817,"ĠpensiÃ³n":8818,"Ġcriterio":8819,"Ġcolombi":8820,"Dos":8821,"pada":8822,"vado":8823,"adilla":8824,"Ġfui":8825,"ĠirÃ¡":8826,"Ġviejo":8827,"Ġtierras":8828,"Ġaudio":8829,"fican":8830,"ĠInvesti":8831,"Ġregidor":8832,"Ġbuscan":8833,"Ġasoci":8834,"Ġdisparo":8835,"Ġcomponentes":8836,"'s":8837,"tinos":8838,"ome":8839,"Ġtocado":8840,"gip":8841,"Ġchicos":8842,"Ġabiertas":8843,"Ġcalificado":8844,"ĠfalleciÃ³":8845,"RA":8846,"Ġparale":8847,"ĠSue":8848,"Ġmisa":8849,"etes":8850,"Ġservir":8851,"ĠsÃŃmb":8852,"Ġadmite":8853,"Ġconcluir":8854,"Ġpierde":8855,"Ġdiagn":8856,"Ġrein":8857,"Ġparada":8858,"Ġingreso":8859,"ĠPacto":8860,"Ġjuventud":8861,"Ġcarro":8862,"Ġafric":8863,"Ġpresentan":8864,"olucion":8865,"osofÃŃa":8866,"rucciones":8867,"Ġextraordinaria":8868,"ĠelectrÃ³nico":8869,"ĠgalardÃ³n":8870,"IA":8871,"fesi":8872,"Ġconquist":8873,"uidas":8874,"abal":8875,"Ġsobrevi":8876,"Ġ57":8877,"Ġexplicaron":8878,"Ġdisputado":8879,"Ca":8880,"dremos":8881,"Ġactiv":8882,"Ġpereg":8883,"Ġtrage":8884,"Ġtrabajador":8885,"medi":8886,"Ã³rico":8887,"Ġeliminar":8888,"Ġcriticado":8889,"ĠcientÃŃficos":8890,"Ġpenalti":8891,"Ġabordar":8892,"ĠBarack":8893,"Ġplas":8894,"Ġexceso":8895,"ĠRen":8896,"Ġasciende":8897,"ĠverÃ¡":8898,"Ġpenas":8899,"Ġvenezol":8900,"critos":8901,"ĠrecalcÃ³":8902,"ueno":8903,"cilla":8904,"Ġtecho":8905,"torno":8906,"ĠMarcos":8907,"Ġencuesta":8908,"Ġreciben":8909,"Ġchi":8910,"Ġurgente":8911,"Ġregistros":8912,"Ġdiputada":8913,"Ġprotestas":8914,"ĠPÃºblico":8915,"Ġcontabili":8916,"Ġllena":8917,"Ġenmar":8918,"Ġdiligencias":8919,"Ġaccion":8920,"Ġvital":8921,"Ġmover":8922,"ĠRoca":8923,"Ġelectri":8924,"Ġbarcos":8925,"Ġfavorable":8926,"Ġtrasladar":8927,"Ġcercana":8928,"Ġsupuestos":8929,"Ġpoca":8930,"Ġasom":8931,"ĠinflaciÃ³n":8932,"Ġsalto":8933,"Ġhablado":8934,"Ġlevantar":8935,"ĠcrÃ©ditos":8936,"ĠexplotaciÃ³n":8937,"Ġdimensiones":8938,"Pro":8939,"enz":8940,"oles":8941,"Ġnoven":8942,"ella":8943,"roso":8944,"Ġcompras":8945,"ĠJose":8946,"Ġuniversidad":8947,"Ġinsul":8948,"Ġpensando":8949,"Ġterritorial":8950,"Ġindividual":8951,"ĠmÃ³viles":8952,"Hab":8953,"SÃ³lo":8954,"Ã³st":8955,"vido":8956,"ĠMÃºsica":8957,"ĠLlor":8958,"govi":8959,"Ġconfirma":8960,"Ġencuestas":8961,"Ġservido":8962,"Ġ95":8963,"Ġhubiese":8964,"Ġusuario":8965,"Ġfrust":8966,"Ġconsolida":8967,"bran":8968,"ĠnaciÃ³n":8969,"rimi":8970,"ĠOtra":8971,"yecto":8972,"Ġvueltas":8973,"Ġacometer":8974,"Ġaporta":8975,"Ġavanzado":8976,"ĠelÃ©ctrico":8977,"Ġprofundidad":8978,"ĠBush":8979,"Creo":8980,"Ġtales":8981,"rilla":8982,"Ġbos":8983,"Ġfueran":8984,"Ġinformar":8985,").-":8986,"Ġencargada":8987,"Ġsecund":8988,"ĠinmigraciÃ³n":8989,"Ġverdadero":8990,"Ġadultos":8991,"by":8992,"entre":8993,"lis":8994,"llero":8995,"tesis":8996,"Ġdecidieron":8997,"ĠcentÃŃm":8998,"vase":8999,"Ġurgencia":9000,"Ġambiental":9001,"Ġhipotecas":9002,"ĠAgricul":9003,"ĠOficial":9004,"vida":9005,"ĠdivisiÃ³n":9006,"Ġigualmente":9007,"traciÃ³n":9008,"ĠChile":9009,"oroeste":9010,"ĠCÃ©sar":9011,"Ġdisi":9012,"Ġsalen":9013,"Ġki":9014,"Ġventajas":9015,"Ġcorredores":9016,"ĠPÃºblica":9017,"servatorio":9018,"braltar":9019,"43":9020,"Sal":9021,"ania":9022,"Ġsegovi":9023,"ĠTanto":9024,"venir":9025,"Ġcarn":9026,"Ġpiens":9027,"Ġrecurrir":9028,"Ġnegativo":9029,"ĠobligÃ³":9030,"ĠHolanda":9031,"Ġprestigio":9032,"ĠVaticano":9033,"ivos":9034,"Ġmone":9035,"Ġdada":9036,"Ġcinta":9037,"ĠapariciÃ³n":9038,"Ġfija":9039,"ĠÃºnicos":9040,"Ġcompetitividad":9041,"Ġincrementar":9042,"Ġeficacia":9043,"Ġaloj":9044,"Ġlateral":9045,"cÃ¡n":9046,"hÃŃa":9047,"Ġdecor":9048,"quer":9049,"ĠAst":9050,"ĠSara":9051,"ĠfundaciÃ³n":9052,"ctividad":9053,"ĠseÃ±alan":9054,"Ġdocumental":9055,"Ġescenarios":9056,"Ġuniversidades":9057,"Ġdrama":9058,"Ġfrenar":9059,"76":9060,"ciencia":9061,"Ġprove":9062,"ĠJordi":9063,"Ġcontaba":9064,"ĠutilizaciÃ³n":9065,"Ġdistinto":9066,"ĠcontemporÃ¡n":9067,"Ġpintor":9068,"Ġbolsi":9069,"ĠAustralia":9070,"ĠPuente":9071,"Ġtransparencia":9072,"Ġcobertura":9073,"Lle":9074,"ualidad":9075,"ĠpabellÃ³n":9076,"ĠAquÃŃ":9077,"terror":9078,"ĠSiempre":9079,"OO":9080,"Ã©ro":9081,"ĠotoÃ±o":9082,"ĠAcciÃ³n":9083,"temp":9084,"quinas":9085,"Ġmalo":9086,"Ġfilme":9087,"ĠautÃ©ntico":9088,"asi":9089,"econ":9090,"Ġaparato":9091,"Ġllamamiento":9092,"Ġcuestion":9093,"Ġcomentarios":9094,"Ġoperativo":9095,"Ġacordado":9096,"Ġzapa":9097,"ĠMichel":9098,"tillas":9099,"Ġrea":9100,"Ġpresuntamente":9101,"ĠveÃŃa":9102,"Ġdesapare":9103,"ĠPrinci":9104,"Ġvulner":9105,"Ġlaboratorio":9106,"ĠexpulsiÃ³n":9107,"He":9108,"guer":9109,"Ġportal":9110,"ĠPel":9111,"iste":9112,"Â».\"":9113,"Ġciudadana":9114,"Ġmilitantes":9115,"ĠturÃŃstica":9116,"Ġcomentado":9117,"Ġdenunciar":9118,"Ġexpedientes":9119,"Ġsolucionar":9120,"MÃ¡":9121,"PP":9122,"RI":9123,"cita":9124,"ĠtÃº":9125,"ĠRonda":9126,"animidad":9127,"Ġpreguntado":9128,"Ġadecuado":9129,"Ġdespido":9130,"Ġconcluido":9131,"Ġsencillo":9132,"Ġsostenible":9133,"Ġprotocolo":9134,"98":9135,"quero":9136,"ĠnÃ³":9137,"Ġsupuesta":9138,"chado":9139,"Ġcaras":9140,"Ġsalarios":9141,"Ġrealizaron":9142,"ĠNatural":9143,"Ġescuelas":9144,"Ġbaloncesto":9145,"Ġlectores":9146,"Ġescapar":9147,"cÃŃas":9148,"Ġpru":9149,"ore":9150,"ĠpropÃ³sito":9151,"ĠJuventud":9152,"ĠRoque":9153,"ĠCamino":9154,"Ġdeportivas":9155,"Ġrepartir":9156,"Ġadoptar":9157,"Ġdenominado":9158,"Ġdevolver":9159,"ĠenseÃ±anza":9160,"Ġeficaz":9161,"tana":9162,"erre":9163,"ĠTiene":9164,"Ġ56":9165,"ĠproyecciÃ³n":9166,"Ġsiglos":9167,"Ġnovia":9168,"Ġpatrul":9169,"ĠTelecinco":9170,"Ġlenguaje":9171,"55":9172,"ĠtÃ¡cti":9173,"ĠemociÃ³n":9174,"Ġorigin":9175,"Ġcomprometido":9176,"Ġacondi":9177,"Ġmila":9178,"Ġtorre":9179,"Ġdeterminados":9180,"ĠGuillermo":9181,"ĠXXI":9182,"Ġintelectual":9183,"imos":9184,"ĠhacÃŃan":9185,"Ġopon":9186,"ĠIII":9187,"ĠEstatal":9188,"ĠCastillo":9189,"Ġoficialmente":9190,"Ġefectivo":9191,"ĠcomparaciÃ³n":9192,"Ġclaves":9193,"ĠeliminaciÃ³n":9194,"Ġagricultores":9195,"cloa":9196,"cari":9197,"ixa":9198,"Ġlin":9199,"tizaciÃ³n":9200,"ĠEbro":9201,"Ġexplican":9202,"ĠChri":9203,"ĠapareciÃ³":9204,"Ġocasion":9205,"Ġpromover":9206,"ĠMoncloa":9207,"Ġrostro":9208,"Cada":9209,"operaciÃ³n":9210,"Ġign":9211,"torce":9212,"ĠTSJ":9213,"Ġlema":9214,"Ã©rpre":9215,"ĠescÃ¡ndal":9216,"Ġvendido":9217,"Ġcentrocam":9218,"Ġconocen":9219,"Ġconcretamente":9220,"ĠlanzÃ³":9221,"Ġprecipitaciones":9222,"Ġvestuario":9223,"Ġitin":9224,"Ġaccesi":9225,"ĠOs":9226,"Ġdiscapacidad":9227,"ĠConce":9228,"parti":9229,"Ġmensuales":9230,"ĠinstrucciÃ³n":9231,"Ġvalorar":9232,"Ġparecido":9233,"Ġantiguos":9234,"Ġmurcianos":9235,"ĠÃ¡rboles":9236,"Ã¼rtel":9237,"TV":9238,"Tenemos":9239,"enden":9240,"Ġcongreso":9241,"Ġestric":9242,"ĠolÃŃmp":9243,"Ġdesac":9244,"Ġdesfile":9245,"Ġcontento":9246,"Ġcredi":9247,"Ġmayorit":9248,"ĠsolicitÃ³":9249,"Ġdisputa":9250,"Ġinstalado":9251,"Ġguipuzco":9252,"ĠmarroquÃŃes":9253,"Ġflamenco":9254,"ĠColombia":9255,"Ġsemestre":9256,"Ġhal":9257,"ÃŃmenes":9258,"ame":9259,"Ġcitada":9260,"Ġpoderos":9261,"Ġprodujeron":9262,"ĠNobel":9263,"Ġ1996":9264,"ĠsacÃ³":9265,"Ġmedalla":9266,"cera":9267,"kÃŃn":9268,"trando":9269,"Ġaer":9270,"ray":9271,"Ġesencial":9272,"ĠCD":9273,"Ġdigni":9274,"cher":9275,"anti":9276,"Ġpodio":9277,"Ġpasaron":9278,"ĠOtro":9279,"Ġradic":9280,"ks":9281,"Ġati":9282,"ĠPes":9283,"Ġexcu":9284,"Ġpresunta":9285,"Ġpeores":9286,"Ġconscientes":9287,"ĠsÃŃnt":9288,"Ġexistente":9289,"Ġcausado":9290,"Ġfamoso":9291,"PSOE":9292,"ĠIgualdad":9293,"88":9294,"gular":9295,"Ġelo":9296,"amÃ©rica":9297,"ĠAma":9298,"Ġdiarios":9299,"Ġextr":9300,"Ġviendo":9301,"Ġ('":9302,"isp":9303,"ĠquedarÃ¡":9304,"Ġencontraron":9305,"Ġartifici":9306,"ĠcrÃŃtico":9307,"Ġmodificaciones":9308,"ĠofrecerÃ¡":9309,"ĠTierra":9310,"Ġmagistrados":9311,"Ġlist":9312,"ĠuniÃ³n":9313,"ticas":9314,"tuvieron":9315,"ĠFuen":9316,"Ġcadenas":9317,"ubern":9318,"gresos":9319,"Ġtriste":9320,"Ġejemplares":9321,"Ġhiciera":9322,"Ġinfantiles":9323,"ĠÃ¡rbi":9324,"caban":9325,"gara":9326,"eres":9327,"Ġalero":9328,"Ġincapa":9329,"ĠVar":9330,"Â».Â«":9331,"Ġabas":9332,"Ġtercio":9333,"Ġrobos":9334,"Ġgenerado":9335,"pÃ³sitos":9336,"ĠadquisiciÃ³n":9337,"ĠTurquÃŃa":9338,"dÃ©":9339,"dol":9340,"ĠHen":9341,"Ġjud":9342,"Ġdispuestos":9343,"Ġderrotas":9344,"Ġintegral":9345,"Ġcomplicada":9346,"ĠONG":9347,"Ġnorteamericano":9348,"ĠRubio":9349,"Ġaceite":9350,"41":9351,"ĠES":9352,"Ġpropuesto":9353,"Ġrespi":9354,"Ġcompuesto":9355,"ĠChÃ¡vez":9356,"ĠOrtiz":9357,"Ġabiertos":9358,"ĠRomero":9359,"Ġasturiano":9360,"mal":9361,"Ġcongel":9362,"ĠAran":9363,"ped":9364,"Ġdiscrim":9365,"Ġagru":9366,"Ġutiliza":9367,"Ġ1995":9368,"ĠCanal":9369,"ĠmadrileÃ±a":9370,"Ġquejas":9371,"Ġunanimidad":9372,"ĠQu":9373,"Ġespecies":9374,"Ġtitulares":9375,"Ġabandono":9376,"ĠpreguntÃ³":9377,"ĠGuardiola":9378,"ĠcentÃŃmetros":9379,"MÃ¡laga":9380,"raest":9381,"Ġfol":9382,"Ġdijeron":9383,"ĠValde":9384,"Ġbajos":9385,"Ġllevando":9386,"Ġalcanza":9387,"Ġclaras":9388,"ĠmÃºsicos":9389,"Ġprovocar":9390,"Ġubicado":9391,"ĠadjudicaciÃ³n":9392,"PC":9393,"dando":9394,"vada":9395,"ueve":9396,"Ġnut":9397,"amar":9398,"ĠDen":9399,"Ġcarteles":9400,"coni":9401,"Ġsolitario":9402,"ĠdirigiÃ³":9403,"Ġdeportistas":9404,"Ġcampeones":9405,"ĠbÃ¡sicos":9406,"ejas":9407,"ski":9408,"elas":9409,"Ġquieran":9410,"Ġvotar":9411,"Ġoficio":9412,"Ġrup":9413,"Ġprivados":9414,"Ġpudieran":9415,"ĠsumÃ³":9416,"ĠPascual":9417,"ÃŃficas":9418,"Ġatractivo":9419,"ĠBerlÃŃn":9420,"700":9421,"jano":9422,"Ġllor":9423,"riles":9424,"ĠPam":9425,"Ġcompens":9426,"Ġpedan":9427,"Ġtraspla":9428,"comun":9429,"ĠmÃ©dica":9430,"Ġfirmar":9431,"Ġsexo":9432,"ĠcuantÃŃa":9433,"ĠGeorge":9434,"Ġleche":9435,"Ġtera":9436,"Ġdanza":9437,"Ġira":9438,"Ġintenta":9439,"Ġempresariales":9440,"Ġministerio":9441,"Ġdirectores":9442,"Ġcorresponden":9443,"Ġenfrentamiento":9444,"ĠcÃ¡ntabros":9445,"ĠAguilar":9446,"loria":9447,"entan":9448,"Ġprovi":9449,"lidos":9450,"migos":9451,"Ġpaquete":9452,"ĠpÃºblicamente":9453,"Ġrealizados":9454,"ĠMedia":9455,"ĠseÃ±alar":9456,"hacer":9457,"ĠMovi":9458,"ĠfotÃ³":9459,"Ġatraves":9460,"Ġcolectiva":9461,"ĠemisiÃ³n":9462,"rueba":9463,"Ġatleta":9464,"Ġnervios":9465,"ĠNuevo":9466,"zano":9467,"Ġflor":9468,"Ġrot":9469,"Ġcomunicaciones":9470,"Ġcontroles":9471,"ĠmÃ¡ximas":9472,"ĠSerÃ¡":9473,"Ġcolaborar":9474,"Ġavanzar":9475,"Ġarries":9476,"Ġresistencia":9477,"Ãĵ":9478,"ĠSui":9479,"Ġbrin":9480,"ĠsaldrÃ¡":9481,"Ġroja":9482,"Ġalegaciones":9483,"Ġrepresentan":9484,"lÃ¡nt":9485,"ĠPrimaria":9486,"Ġrecomen":9487,"Ġcontundente":9488,"Ġfundamentalmente":9489,"queta":9490,"ĠvÃŃs":9491,"amen":9492,"Ġincent":9493,"Ġcusto":9494,"Ġciencia":9495,"Ġpersonalidad":9496,"Ġprevisible":9497,"Ġcomunes":9498,"Ġsabi":9499,"Ġdinami":9500,"ĠAutor":9501,"ĠMontilla":9502,"ĠMilÃ¡n":9503,"Ġcubierta":9504,"ogle":9505,"Ġgratuita":9506,"ubernam":9507,"aunque":9508,"fun":9509,"cidades":9510,"ĠSac":9511,"Ġmist":9512,"denciales":9513,"Ġprevistos":9514,"ĠMoham":9515,"Ġ1997":9516,"Ġfallecimiento":9517,"Ġcuerpos":9518,"Ġinstrumentos":9519,"Ġrebaja":9520,"ĠFederer":9521,"Ġbrazos":9522,"Ġinundaciones":9523,"Ġtragedia":9524,"ualmente":9525,"ĠlÃ¡":9526,"esÃŃa":9527,"Ġaspi":9528,"Ġcartera":9529,"ters":9530,"ĠhipÃ³":9531,"ĠIndia":9532,"ĠKar":9533,"ĠrecibirÃ¡":9534,"Ġinmuebles":9535,"ĠindemnizaciÃ³n":9536,"Ġequilibrio":9537,"ĠRenault":9538,"Ġentusias":9539,"Ni":9540,"sable":9541,"liar":9542,"ĠVuelta":9543,"Ġterra":9544,"Ġsolar":9545,"Ġcerrada":9546,"Ġsalidas":9547,"ĠSofÃŃa":9548,"Ġbaile":9549,"Ġinvitados":9550,"Ġreclama":9551,"Ġcaute":9552,"Ġconstructor":9553,"Ġorganizadores":9554,"ĠprÃ©stamos":9555,"97":9556,"grado":9557,"Ãį":9558,"ĠEd":9559,"ĠFÃ³rmula":9560,"ĠEner":9561,"Ġfij":9562,"Ġpriva":9563,"Ġapare":9564,"Ġdistinta":9565,"Ġempezado":9566,"Ġruedas":9567,"Ġcontribuir":9568,"Ġflexi":9569,"ĠobstÃ¡":9570,"05":9571,"Pa":9572,"riÃ³n":9573,"ĠPon":9574,"Ġdesma":9575,"Ġveo":9576,"Ġconsulta":9577,"Ġdisponer":9578,"ĠPekÃŃn":9579,"ĠfirmÃ³":9580,"Ġinformaciones":9581,"Ġfavorito":9582,"ctos":9583,"kari":9584,"Ġgubernam":9585,"ĠagrupaciÃ³n":9586,"ĠCarre":9587,"brÃ³":9588,"ĠÃ¡l":9589,"Ġvuelva":9590,"Ġlanzar":9591,"Ġhubieran":9592,"ĠrechazÃ³":9593,"Ġdestinados":9594,"ĠÃ¡mbitos":9595,"Ġintroducir":9596,"Ġfranceses":9597,"ĠjurÃŃdica":9598,"Ġamistad":9599,"ĠCuerpo":9600,"ys":9601,"yunt":9602,"Ġseno":9603,"Ġanuncia":9604,"drÃŃan":9605,"Ġintentado":9606,"strali":9607,"Ġvestido":9608,"ĠInfraest":9609,"bora":9610,"vero":9611,"Ġhambre":9612,"ĠLabor":9613,"sea":9614,"ĠRol":9615,"Ġpasadas":9616,"Ġinvertir":9617,"ĠaumentÃ³":9618,"Ġcamiones":9619,"ÃŃrculo":9620,"Ra":9621,"adr":9622,"inaciÃ³n":9623,"rista":9624,"Ġobispo":9625,"ĠABC":9626,"Ġsuponer":9627,"Ġdemandas":9628,"ĠMerkel":9629,"ĠFerrer":9630,"Ġespectador":9631,"Ġmezcla":9632,"ĠcafÃ©":9633,"ĠAir":9634,"Ġcatorce":9635,"Ġimpre":9636,"ĠAlba":9637,"grafo":9638,"ĠKe":9639,"Ġbasado":9640,"Barcelona":9641,"ĠEsperanza":9642,"87":9643,"lante":9644,"ĠPuerta":9645,"dadas":9646,"cante":9647,"Ġtirar":9648,"Ġ54":9649,"andÃ©s":9650,"...)":9651,"rich":9652,"Ġcoinciden":9653,"Ġadelantado":9654,"Ġagregado":9655,"Ġtarifas":9656,"ĠJean":9657,"Ġreservas":9658,"nia":9659,"davÃŃa":9660,"Ġentrado":9661,"Ġpuedes":9662,"ĠÃ©stas":9663,"Ġdebu":9664,"Ġaviones":9665,"Ġconstituye":9666,"Ġcamiseta":9667,"Ġexclusivamente":9668,"vino":9669,"Ġencen":9670,"Ġvola":9671,"Ã±al":9672,"Ġdivul":9673,"ĠcuÃ¡ndo":9674,"Ġprestar":9675,"ducir":9676,"Ġvayan":9677,"Ġfiel":9678,"Ġafectada":9679,"Ġespecialista":9680,"Ġintensa":9681,"ĠcolocaciÃ³n":9682,"Ġcaptu":9683,"ĠPalau":9684,"Ġorgullo":9685,"Ġveterano":9686,"Ġintercambio":9687,"pur":9688,"ane":9689,"tion":9690,"Ġflu":9691,"Ġilici":9692,"cuando":9693,"Ġobser":9694,"enciales":9695,"Ġsabor":9696,"ĠhabitaciÃ³n":9697,"ĠCorporaciÃ³n":9698,"Ġmostraron":9699,"hab":9700,"ling":9701,"adura":9702,"ombre":9703,"turo":9704,"ĠFab":9705,"Ġaustrali":9706,"Ġ62":9707,"Ġconfirmar":9708,"ĠacompaÃ±ada":9709,"Ġexperto":9710,"ĠreiterÃ³":9711,"EE":9712,"Ġquede":9713,"sivos":9714,"Ġvial":9715,"ĠTres":9716,"ĠTenemos":9717,"Ġinterro":9718,"Ġdirectivos":9719,"etafe":9720,"ĠparticipÃ³":9721,"Ġsubido":9722,"Ġhumani":9723,"Ã©ticos":9724,"ĠOficina":9725,"Ġreferido":9726,"cÃº":9727,"Ġaun":9728,"ciano":9729,"Ãºcar":9730,"uelva":9731,"Ġ51":9732,"Ġformato":9733,"ĠSerrano":9734,"ĠMujer":9735,"Ġprecisa":9736,"ĠDiputados":9737,"ĠanotÃ³":9738,"ĠContador":9739,"Ġhueco":9740,"Ġpobreza":9741,"Ġcontenedores":9742,"Ġfortuna":9743,"Ġkilo":9744,"ĠficciÃ³n":9745,"Ġdesvi":9746,"atado":9747,"Ġpobres":9748,"Ġteniente":9749,"ĠEstamos":9750,"ĠbajÃ³":9751,"ĠÃģvila":9752,"Ġdirectos":9753,"Ġdependencia":9754,"Ġgripe":9755,"ĠAndre":9756,"Ġgeneraciones":9757,"Ġingles":9758,"entemente":9759,"ĠperdÃ³n":9760,"atinos":9761,"ĠDÃŃ":9762,"cesa":9763,"Ġverte":9764,"Ġcalcula":9765,"Ġiniciales":9766,"rÃ³f":9767,"Ġambul":9768,"Ġvecina":9769,"Ġboda":9770,"Ġdemuest":9771,"Ġsatisfecho":9772,"ĠMedina":9773,"Ġinteligencia":9774,"Ġincertidumbre":9775,"Ġaccesos":9776,"ĠHel":9777,"Ġinflu":9778,"endakari":9779,"ĠtrÃ¡n":9780,"Ġtemor":9781,"Ġindustriales":9782,"Ġfiguran":9783,"Ġfemenino":9784,"Ġsonrisa":9785,"ĠInfraestructuras":9786,"zu":9787,"queo":9788,"Ġala":9789,"ĠDuero":9790,"Ġsonido":9791,"Ġveintena":9792,"Ġnegra":9793,"Ġcontinente":9794,"Ġutilizan":9795,"Ġinmediatamente":9796,"poll":9797,"Ġincluida":9798,"Ġhall":9799,"Ġrepas":9800,"Ġanaliz":9801,"Ġsolamente":9802,"ĠUrbana":9803,"ĠPatri":9804,"ĠmÃ©todo":9805,"Ġgigante":9806,"ĠdiscusiÃ³n":9807,"Ġfemenina":9808,"ĠlÃ³gico":9809,"ata":9810,"ld":9811,"ĠCAM":9812,"Ġtraer":9813,"Ġ64":9814,"Ġ68":9815,"Ġformada":9816,"Ġafectan":9817,"Ġdomicili":9818,"Ġinquie":9819,"ĠembarcaciÃ³n":9820,"Ġfantas":9821,"Ġausteridad":9822,"ĠRonaldo":9823,"gona":9824,"unos":9825,"Ġdescuent":9826,"ĠRu":9827,"pulaciÃ³n":9828,"Ã©lix":9829,"ĠAgricultura":9830,"Ġ&":9831,"Ġeje":9832,"Ġfama":9833,"ices":9834,"ĠCorte":9835,"Ġjoy":9836,"ĠTro":9837,"erias":9838,"Ġprevent":9839,"ĠsuperÃ³":9840,"Ġurnas":9841,"ĠacordÃ³":9842,"ĠSecre":9843,"illiam":9844,"pados":9845,"Ġdedica":9846,"adra":9847,"ĠAÃºn":9848,"ĠSor":9849,"ĠJames":9850,"ĠintÃ©rpre":9851,"Ġmapa":9852,"Ġmedicam":9853,"Ġtuviera":9854,"Ġpresentarse":9855,"Ġenfermos":9856,"Ġandaluza":9857,"ENA":9858,"ĠDerechos":9859,"ĠIzquier":9860,"usse":9861,"tenci":9862,"Ġnegado":9863,"brada":9864,"oluciones":9865,"Ġcorreo":9866,"Ġrecuerdan":9867,"Ġencontramos":9868,"Ġsenador":9869,"Ġaudiovi":9870,"Ġdec":9871,"Ġhere":9872,"Ġinex":9873,"urales":9874,"ĠNuestra":9875,"ĠCiencias":9876,"Ġcuartel":9877,"Ġfuncionario":9878,"Ġgestionar":9879,"Ġfinanciar":9880,"cribir":9881,"Ġacercarse":9882,"Ġtaur":9883,"Ġexclusiva":9884,"lywood":9885,"ĠredacciÃ³n":9886,"ĠTemperaturas":9887,"ĠIniesta":9888,"GOU":9889,"Ġlongi":9890,"PF":9891,"tega":9892,"Ġ(+":9893,"Ġseguros":9894,"ĠConsu":9895,"ĠRobert":9896,"Ġllegando":9897,"ctualmente":9898,"ĠaportÃ³":9899,"ĠreclamÃ³":9900,"ĠFuente":9901,"ĠGibraltar":9902,"Ġandaluces":9903,"Ġdenominada":9904,"ĠaclarÃ³":9905,"Ġcumplen":9906,"ĠAutoridad":9907,"omi":9908,"Ġsuizo":9909,"Ġesqui":9910,"Ġperj":9911,"ĠJon":9912,"ĠMarc":9913,"bilizar":9914,"Ġ2016":9915,"Ġamar":9916,"ĠsubvenciÃ³n":9917,"Ġanimal":9918,"Ġconstruido":9919,"Ġtransmitir":9920,"txe":9921,"Ġsimul":9922,"ĠremodelaciÃ³n":9923,"Ġevent":9924,"ĠCali":9925,"Ġdiciendo":9926,"ĠRab":9927,"desde":9928,"ĠtenÃŃamos":9929,"ĠOscar":9930,"culada":9931,"Ġexperiencias":9932,"Ġciclista":9933,"Ã¡ndole":9934,"Ġcercanas":9935,"Ġfilial":9936,"rÃ©s":9937,"Ã±Ã³n":9938,"ĠCN":9939,"Ã¡nico":9940,"Ġcorta":9941,"ĠcontinÃºan":9942,"Ġempleado":9943,"Ġinvestigar":9944,"gnaciÃ³n":9945,"Ġacoge":9946,"incÃ³n":9947,"Ġperspectiva":9948,"Ġdescubrir":9949,"Ġsuya":9950,"ĠArenas":9951,"Ġpredi":9952,"Ġimpa":9953,"Ġconvenios":9954,"Ġinteresados":9955,"Ġmoderados":9956,"Ġfraude":9957,"Ġbrillante":9958,"Ġgor":9959,"ĠSos":9960,"ĠNosotros":9961,"ĠAlco":9962,"Ġcarril":9963,"Ġrodaje":9964,"Ã©rico":9965,"Ġcancha":9966,"Ġponiendo":9967,"Ġbanca":9968,"ĠVila":9969,"Ġtranquilo":9970,"Ġmanteniendo":9971,"Ġincendios":9972,"Ġmolesti":9973,"Ġbrazo":9974,"Ġfrecuencia":9975,"Ġreunir":9976,"ĠJuliÃ¡n":9977,"Ġbilletes":9978,"Ġsesenta":9979,"96":9980,"Ġdeje":9981,"Ġseman":9982,"ĠPere":9983,"ĠLula":9984,"mant":9985,"Ġcreciente":9986,"Ġcanci":9987,"Ġ72":9988,"Ġviviendo":9989,"Ġideal":9990,"core":9991,"ĠcausÃ³":9992,"Ġtermina":9993,"ĠSociales":9994,"Ġgobernador":9995,"ĠBosque":9996,"ĠAtenciÃ³n":9997,"tativo":9998,"Ġcierra":9999,"Ġfuese":10000,"ĠEspecial":10001,"udar":10002,"Ġpresentaba":10003,"Ġformaciones":10004,"ĠMagos":10005,"Ġhablan":10006,"Ġquedaba":10007,"ĠrÃ¡pidamente":10008,"Ġfumadores":10009,"ĠjurÃŃdico":10010,"Ġpaisaje":10011,"Ġimprovi":10012,"ĠCervantes":10013,"ĠGetafe":10014,"ĠNBA":10015,"ĠentregÃ³":10016,"etan":10017,"Ġcostas":10018,"Ġchino":10019,"Ġsometer":10020,"Ġrechazado":10021,"ĠprocesiÃ³n":10022,"ĠdiseÃ±ado":10023,"ĠrecaudaciÃ³n":10024,"ĠBarreda":10025,"Ġcement":10026,"ĠConcejal":10027,"Ġdignidad":10028,"GP":10029,"Ġedades":10030,"Ġdesalo":10031,"ĠHemos":10032,"ĠCameron":10033,"Ġsubidas":10034,"Siempre":10035,"ĠMercedes":10036,"ĠWiki":10037,"%;":10038,"Gran":10039,"Rec":10040,"ĠpÃŃvot":10041,"ony":10042,"pedal":10043,"\".\"":10044,"Ġtemperatura":10045,"ĠdifusiÃ³n":10046,"Ġplanteado":10047,"Ġaposti":10048,"lateral":10049,"Ġexcepcional":10050,"Ġposee":10051,"ĠmercancÃŃas":10052,"zaban":10053,"def":10054,"Ġfores":10055,"ĠBB":10056,"ĠOtros":10057,"Ġchar":10058,"Ġtriples":10059,"Ġacusa":10060,"Ġintenso":10061,"Ġusar":10062,"Ġterritorios":10063,"ĠPrimero":10064,"ĠPues":10065,"Ġredac":10066,"Ġtriunfos":10067,"Ġlongitud":10068,"orar":10069,"alta":10070,"Ã³nicos":10071,"istema":10072,"Ġasent":10073,"Ġcircular":10074,"Ġsolicitudes":10075,"ĠavanzÃ³":10076,"ĠGonz":10077,"ĠhistÃ³ricos":10078,"Ġpreciso":10079,"Ġdescubierto":10080,"Ġdisminuy":10081,"ĠSilva":10082,"Ġconsistorio":10083,"ĠACB":10084,"ĠClinton":10085,"ĠpolÃŃgono":10086,"Ġnombramiento":10087,"Ayer":10088,"Ġdebi":10089,"Ġluces":10090,"Ġ59":10091,"Ġruido":10092,"Ġbienestar":10093,"Ġfieles":10094,"Ġindicaron":10095,"ĠexplicaciÃ³n":10096,"ĠPau":10097,"Ġdescarta":10098,"Ġconsiguieron":10099,"Ġnubosos":10100,"Ġdisponibles":10101,"gones":10102,"wer":10103,"quetes":10104,"reza":10105,"Ġafluencia":10106,"Ġantece":10107,"Ġresultaron":10108,"ĠSuper":10109,"Ġsufra":10110,"Ġintentando":10111,"EstÃ¡":10112,"Ġincidencia":10113,"ĠartÃŃstico":10114,"ĠdemostrÃ³":10115,"Ġconcesion":10116,"Ġgallego":10117,"ĠHistoria":10118,"Ġjuguetes":10119,"Ġcentrocampista":10120,"Ġmente":10121,"Ġcopi":10122,"moto":10123,"ĠForm":10124,"ĠOlÃŃmp":10125,"losa":10126,"Ġbajado":10127,"Ġchil":10128,"Ġgasolina":10129,"Ġanunciar":10130,"Ġbode":10131,"Ġcontrad":10132,"Ġavances":10133,"Ġenferm":10134,"ĠcontinuarÃ¡":10135,"Ġblancos":10136,"Ġespero":10137,"aks":10138,"Ġbonito":10139,"hendakari":10140,"ientes":10141,"jetas":10142,"Ġvaria":10143,"ĠPaj":10144,"ĠPase":10145,"copa":10146,"ello":10147,"Ġcint":10148,"ĠNada":10149,"Ġverdes":10150,"Ġmejorado":10151,"ĠteorÃŃa":10152,"ĠCate":10153,"Ġempezaron":10154,"Ġadecuada":10155,"Ġdesaparecido":10156,"Ġrelevo":10157,"ĠmalagueÃ±os":10158,"ĠHollywood":10159,"ĠBienestar":10160,"ĠAlcaldÃŃa":10161,"Ġrevela":10162,"ĠFamilia":10163,"sÃ³lo":10164,"Ġatro":10165,"Ã©lez":10166,"olÃ¡s":10167,"ariado":10168,"Ġdesn":10169,"gias":10170,"Ã©nia":10171,"usconi":10172,"\".Â«":10173,"estiÃ³n":10174,"Ġfijado":10175,"ĠLiber":10176,"ĠfilosofÃŃa":10177,"Ġarranque":10178,"ĠHotel":10179,"ĠdisminuciÃ³n":10180,"trio":10181,"ĠalusiÃ³n":10182,"ĠPicas":10183,"pona":10184,"ĠVall":10185,"Ġtransi":10186,"ĠvenÃŃa":10187,"Ġvencer":10188,"iniones":10189,"ĠMili":10190,"Ġcircula":10191,"Ġestuvi":10192,"Ġreclamar":10193,"Ġcomedia":10194,"Ġconsecutivos":10195,"ÃŃv":10196,"ĠCit":10197,"ĠPl":10198,"rosa":10199,"ĠLaura":10200,"Ġdiscos":10201,"acÃ³n":10202,"jante":10203,"Ġdestinos":10204,"ĠpublicÃ³":10205,"Ġcinemato":10206,"ĠMercado":10207,"Ġsumario":10208,"Ġidentificar":10209,"Ġagrupa":10210,"77":10211,"Ġces":10212,"raba":10213,"mida":10214,"Ġdescont":10215,"erios":10216,"ĠVil":10217,"Ġcreciendo":10218,"Ġpreviamente":10219,"Ġllevarse":10220,"ĠseÃ±alaron":10221,"ĠtrasladÃ³":10222,"Ġvariedad":10223,"ĠvacÃŃo":10224,"Ġmultiplic":10225,"ĠGabri":10226,"Ġabsten":10227,"ĠSuiza":10228,"Ġgit":10229,"ĠSoria":10230,"Ġpresentadas":10231,"ĠPoder":10232,"ĠautonomÃŃas":10233,"Ġmorir":10234,"ĠdÃ©cimo":10235,"ĠInfantil":10236,"Ġnarco":10237,"ĠreÃºne":10238,"ĠXIX":10239,"Ġpil":10240,"aso":10241,"enza":10242,"Ġflores":10243,"Ġhago":10244,"Ġafro":10245,"ĠComi":10246,"Ġhomici":10247,"ĠCapi":10248,"Ġconducir":10249,"Ġwww":10250,"Ġclasificado":10251,"Ġreiterado":10252,"ĠsÃ©ptimo":10253,"Ġendeud":10254,"bum":10255,"Ġinyec":10256,"ĠPeter":10257,"Ġpropa":10258,"lizar":10259,"chÃ³":10260,"verso":10261,"Ġarcas":10262,"Ġinfancia":10263,"ĠInma":10264,"ĠcambiÃ³":10265,"Ġcombatir":10266,"ĠGandia":10267,"ĠInformaciÃ³n":10268,"Ġquerer":10269,"Ġretos":10270,"ĠpoesÃŃa":10271,"ĠrecesiÃ³n":10272,"Ġagr":10273,"Ġconvencer":10274,"Ġcontemplar":10275,"Ġnacionalistas":10276,"Ġinstrumento":10277,"ĠdÃ©cimas":10278,"ĠIndustri":10279,"Ġarchivo":10280,"ĠhostelerÃŃa":10281,"Ġpalacio":10282,"geri":10283,"Ġfl":10284,"Ġoch":10285,"Ġalbacete":10286,"siempre":10287,"Ġdesfil":10288,"Ġperdieron":10289,"Ã©sped":10290,"ĠKen":10291,"ĠdestrucciÃ³n":10292,"Ġevidencia":10293,"ĠcatedrÃ¡":10294,"Ġtrofeo":10295,"Ġhumil":10296,"Ġitiner":10297,"PO":10298,"arnos":10299,"cientos":10300,"Ġunido":10301,"titu":10302,"Ġrestric":10303,"Ġinterno":10304,"Ġpartidas":10305,"Ġmedias":10306,"ĠOvi":10307,"Ġlimp":10308,"Ġplatos":10309,"Ġverti":10310,"ign":10311,"Ġpermanencia":10312,"ĠJaÃ©n":10313,"abilidad":10314,"bano":10315,"cista":10316,"ĠStre":10317,"Ġmuro":10318,"eriormente":10319,"ĠFranco":10320,"ĠOrtega":10321,"ĠliberaciÃ³n":10322,"Ġprecedentes":10323,"Ġextradi":10324,"San":10325,"fra":10326,"onada":10327,"dire":10328,"Ġnarra":10329,"Ġestados":10330,"Ġigu":10331,"Ġnoches":10332,"Ġbat":10333,"ĠBry":10334,"uelto":10335,"Ġindicios":10336,"Ġindican":10337,"Ġllegaba":10338,"Ġbarcel":10339,"Ġdeportivos":10340,"Ġrentabilidad":10341,"Ġmodalidad":10342,"ĠdiagnÃ³stico":10343,"hle":10344,"Ġpali":10345,"Ġenrique":10346,"Ġrentas":10347,"Ġvilla":10348,"ÃŃtico":10349,"Ġ53":10350,"Ġopiniones":10351,"Ġzan":10352,"Ġfachada":10353,"Ġesperado":10354,"Ġalemanes":10355,"ĠreuniÃ³":10356,"Ġenviar":10357,"Ġcotidi":10358,"ĠBernab":10359,"Ġilegales":10360,"Juan":10361,"ĠconfesÃ³":10362,"Ġafiliados":10363,"Ġatraviesa":10364,"Ġelectricidad":10365,"Man":10366,"onÃ©s":10367,"tiles":10368,"leaks":10369,"tez":10370,"Ġcoyunt":10371,"Ġcuali":10372,"novar":10373,"Ġancho":10374,"Ġneum":10375,"Ġponga":10376,"Ġdestro":10377,"ĠabrirÃ¡":10378,"ĠProdu":10379,"Ġdetenciones":10380,"Ġaportaciones":10381,"Ġprovoca":10382,"Ġacudido":10383,"Ġcomienzos":10384,"Ġconsumidor":10385,"ĠmalagueÃ±a":10386,"Ġsustituir":10387,"ĠBenedicto":10388,"ĠrepercusiÃ³n":10389,"TI":10390,"ito":10391,"distas":10392,"ritas":10393,"ĠClar":10394,"sel":10395,"Ġintentos":10396,"ĠconsideraciÃ³n":10397,"Ġsentirse":10398,"Ġalej":10399,"Ã³digo":10400,"Ġsustra":10401,"Ġacumula":10402,"mesas":10403,"Ġreunirse":10404,"Ġfurgon":10405,"cero":10406,"xta":10407,"Ġpecu":10408,"Ġcongre":10409,"Ġacaban":10410,"rump":10411,"Ġordin":10412,"Ġ2013":10413,"Ġvalorado":10414,"Ġlanzado":10415,"Ġejecutar":10416,"Ġjustificar":10417,"Ġcampamento":10418,"Ġsentimiento":10419,"ĠConcejalÃŃa":10420,"Cam":10421,"Tanto":10422,"Ġetarras":10423,"Ġdetuvo":10424,"ĠBlas":10425,"ĠDÃ©nia":10426,"ĠservirÃ¡":10427,"Ġconsejos":10428,"Ġseries":10429,"Ġconvocar":10430,"Ġaumenta":10431,"ĠdisputarÃ¡":10432,"allero":10433,"ĠFinalmente":10434,"Ġpertenece":10435,"Ġexperimentado":10436,"Ġoptimismo":10437,"Ã©lgica":10438,"lÃ³n":10439,"rent":10440,"ĠBay":10441,"ĠserÃŃan":10442,"Ġarbi":10443,"Ġfinca":10444,"ĠKa":10445,"Ġrelato":10446,"ĠordenÃ³":10447,"Ġurbani":10448,"Ġsumado":10449,"Ġarquitectura":10450,"Ġtrayecto":10451,"ĠdÃ©bil":10452,"Ġacuden":10453,"61":10454,"Ġara":10455,"inz":10456,"uig":10457,"Ãºe":10458,"quito":10459,"Ġcontrar":10460,"erona":10461,"ĠmÃ¡quina":10462,"Ġmostra":10463,"Ġrecuerdos":10464,"ĠCalle":10465,"Ġapoyos":10466,"ĠSoler":10467,"zcaya":10468,"Ġinstructor":10469,"ĠMedicina":10470,"Ġescasa":10471,"Ġdisciplina":10472,"ĠCasillas":10473,"Ġseleccionador":10474,"ĠhipÃ³tesis":10475,"org":10476,"Ġquerella":10477,"omen":10478,"Ġentregado":10479,"Ġdosis":10480,"Ġmatar":10481,"ĠseguÃŃa":10482,"Ġhabitualmente":10483,"ĠBrown":10484,"Ġsuje":10485,"Ġmaqu":10486,"Ġadh":10487,"Ġ63":10488,"ĠmuchÃŃsimo":10489,"Ġleyenda":10490,"ĠagradeciÃ³":10491,"Ġlegalidad":10492,"ĠÃ³pti":10493,"ĠBolsa":10494,"Ġsuministro":10495,"ĠrompiÃ³":10496,"Ġvencedor":10497,"92":10498,"sco":10499,"eral":10500,"Ġmeteor":10501,"ĠTrin":10502,"ĠFÃ©lix":10503,"ĠniÃ±as":10504,"ĠagrÃŃ":10505,"Ġfundador":10506,"ĠVitoria":10507,"ĠPSE":10508,"Ġsiguiendo":10509,"ĠbaÃ±o":10510,"ĠcalificaciÃ³n":10511,"Ġfronteras":10512,"Ġlicencias":10513,"Ġprestigi":10514,"ĠsentenciÃ³":10515,"ĠNochevieja":10516,"ĠtÃºnel":10517,"mÃ¡ticas":10518,"tadores":10519,"oras":10520,"Ġestam":10521,"ĠCÃ³digo":10522,"Ġestaciones":10523,"ositores":10524,"Ġempla":10525,"ĠNou":10526,"Ġintenciones":10527,"Ġincorpora":10528,"Ġsometido":10529,"ĠBomberos":10530,"Ġseme":10531,"Ġvist":10532,"ĠCle":10533,"Ġduras":10534,"siete":10535,"cobe":10536,"Ġquitar":10537,"Ġgestiones":10538,"ĠCospedal":10539,"Ġconsultadas":10540,"ĠÃ³pera":10541,"Ġsiniestro":10542,"ĠestadÃŃsticas":10543,"Junto":10544,"guros":10545,"entino":10546,"Ġconcer":10547,"ĠAh":10548,"Ġbarro":10549,"Ġcitas":10550,"Ġtenis":10551,"ĠUS":10552,"poner":10553,"ĠZa":10554,"Ġcambia":10555,"enciar":10556,"ĠGenerales":10557,"ĠCaixa":10558,"Ġpensado":10559,"ĠBanca":10560,"Ġdeterminadas":10561,"arragona":10562,"Ġcaballos":10563,"Ġagricultura":10564,"ĠBerlusconi":10565,"ometra":10566,"ĠdomÃ©st":10567,"Ġcanciller":10568,"ĠdebiÃ³":10569,"ecesi":10570,"Ġgama":10571,"Ġdiga":10572,"Ġdivor":10573,"quili":10574,"ĠcreÃ³":10575,"ĠMarÃŃn":10576,"Ġpesetas":10577,"Ġcoincide":10578,"Ġcoincidiendo":10579,"ĠsitÃºan":10580,"ĠcientÃŃfico":10581,"ĠautÃ©ntica":10582,"Ġcensura":10583,"MS":10584,"ds":10585,"Ġpetro":10586,"Ġoli":10587,"ĠJunto":10588,"Ġtratos":10589,"iles":10590,"Ġmensual":10591,"Ġdecide":10592,"Ġron":10593,"ĠDemo":10594,"Ġjuegan":10595,"ĠirÃ¡n":10596,"Ġencargados":10597,"Ġdestinada":10598,"ĠcamiÃ³n":10599,"Ġpiscina":10600,"Ġremate":10601,"ĠiranÃŃ":10602,"58":10603,"Ġrar":10604,"orden":10605,"Ġencu":10606,"Ġvistas":10607,"Ġoccidental":10608,"Ġalu":10609,"minas":10610,"ficaron":10611,"Ġvolvieron":10612,"ĠsupondrÃŃa":10613,"Ġrutas":10614,"Ġfavorecer":10615,"Ġgritos":10616,"Ġelaborar":10617,"Ġdespedir":10618,"ĠAuton":10619,"Ġherramienta":10620,"Ġcuello":10621,"ĠPatronato":10622,"terrorista":10623,"temporada":10624,"anista":10625,"ÃŃdos":10626,"dif":10627,"Ġestal":10628,"ĠTVE":10629,"ĠVÃ©lez":10630,"Ġabar":10631,"ĠdotaciÃ³n":10632,"ĠÃį":10633,"Ġsecretos":10634,"Ġpretenden":10635,"Ġguarda":10636,"Ġconflictos":10637,"ĠMoscÃº":10638,"unya":10639,"icar":10640,"Ġgig":10641,"ĠBaja":10642,"Ġmurieron":10643,"Ġliger":10644,"ĠConferencia":10645,"ĠEstoy":10646,"Ġcircul":10647,"Ġdesple":10648,"ĠPerson":10649,"Ġamericano":10650,"Ġtormenta":10651,"fesional":10652,"ĠsÃŃntomas":10653,"mistas":10654,"ĠRich":10655,"Ġanul":10656,"Ġintercep":10657,"Ġfianza":10658,"estructura":10659,"Ġvende":10660,"ĠAnti":10661,"Ġcuadros":10662,"Ġsecuestro":10663,"liegue":10664,"ancial":10665,"omar":10666,"Ġincur":10667,"Ġinmer":10668,"siera":10669,"Ġnuevamente":10670,"Ġdiscul":10671,"Ġafortun":10672,"trÃ³":10673,"Ġminor":10674,"ĠcostÃ³":10675,"Ġembarca":10676,"Ġautomo":10677,"Ġaparecer":10678,"boa":10679,"Ġfracas":10680,"Ġencontrarse":10681,"Ġagradecer":10682,"Te":10683,"buena":10684,"anueva":10685,"Ã©ri":10686,"Ġinn":10687,"Ġtratarse":10688,"Ġcortar":10689,"Ġroto":10690,"TAN":10691,"ĠLuz":10692,"ĠfabricaciÃ³n":10693,"Ġequipamiento":10694,"mÃ³":10695,"Ġpuro":10696,"ĠGÃ¼rtel":10697,"Ġvirus":10698,"ĠhabrÃŃan":10699,"Ġcaminos":10700,"fianza":10701,"Ġprocedimientos":10702,"Ġ1992":10703,"Ġpoblaciones":10704,"Ġciertas":10705,"Ġelevada":10706,"Ġhipotec":10707,"Ġfamosa":10708,"Precisamente":10709,"ĠÃ¡lbum":10710,"darse":10711,"astas":10712,"ĠestÃ©tica":10713,"ĠLA":10714,"Ġpretemporada":10715,"ĠMarco":10716,"ĠWilliam":10717,"ĠcÃ³mp":10718,"Ġrusa":10719,"Ġcompatrio":10720,"Ġpalestinos":10721,"ĠNicolÃ¡s":10722,"Ġadolescentes":10723,"hasta":10724,"ward":10725,"ĠhÃŃ":10726,"ĠRico":10727,"Ġletras":10728,"Ġplacer":10729,"Ġregistrados":10730,"ĠconociÃ³":10731,"Ġpermanece":10732,"ĠTorrevieja":10733,"Ġenfrentamientos":10734,"Ġartef":10735,"Ġdeterioro":10736,"Ġbronce":10737,"Ġochenta":10738,"78":10739,"CC":10740,"Pe":10741,"ang":10742,"ĠenviÃ³":10743,"Ġgab":10744,"ĠSerna":10745,"Ġmonte":10746,"Ġfaltan":10747,"ĠcrÃŃmenes":10748,"Ġuniversal":10749,"Ġinvitado":10750,"ĠacompaÃ±ados":10751,"Ġrespetar":10752,"Ġsexta":10753,"Ġpancar":10754,"Ġoscu":10755,"capaci":10756,"ĠextensiÃ³n":10757,"Ġsindical":10758,"ĠholandÃ©s":10759,"Ġruptura":10760,"ĠPaseo":10761,"Ese":10762,"Ã¡Ã±ez":10763,"siqui":10764,"Ġpropuso":10765,"abo":10766,"Ġimpide":10767,"ĠConsor":10768,"Ġanalistas":10769,"Ġhorarios":10770,"Ã±aki":10771,"ĠArro":10772,"Ġprofunda":10773,"Ġconstancia":10774,"Ġafectar":10775,"Ġmoderna":10776,"ĠDeportivo":10777,"Ġprefiere":10778,"Ġmercantil":10779,"ĠTimes":10780,"Ġmalestar":10781,"cÃ©n":10782,"Ġhu":10783,"Ġconvic":10784,"Ġviva":10785,"rum":10786,"ĠFac":10787,"Ġhijas":10788,"Ġoptar":10789,"ĠvocaciÃ³n":10790,"ĠMonta":10791,"Ġenfrentarse":10792,"Ġahorros":10793,"Ġsustancias":10794,"Ġreferencias":10795,"Ġobligados":10796,"Ġhosteleros":10797,"arles":10798,"Ġmuertes":10799,"hibido":10800,"Ġdetener":10801,"ĠturÃŃsticos":10802,"ĠescaÃ±os":10803,"ĠAthle":10804,"Ġborde":10805,"ĠGoogle":10806,"ĠBeat":10807,"Ġexplosivos":10808,"Ġmanifestantes":10809,"Ġinmobiliario":10810,"Ġherramientas":10811,"Ġmolestias":10812,"ĠAthletic":10813,"MT":10814,"zona":10815,"art":10816,"Ġparques":10817,"ĠAla":10818,"olviÃ³":10819,"vili":10820,"vidades":10821,"ĠSerra":10822,"cebo":10823,"idepor":10824,"Ġanal":10825,"ĠSuÃ¡rez":10826,"Ġrelacionado":10827,"ĠmÃ¡quinas":10828,"Ġejercicios":10829,"Ġubicada":10830,"Ġincrementado":10831,"ĠFederal":10832,"Ġcomisario":10833,"ĠnavideÃ±as":10834,"Ġsetenta":10835,"Ġinevi":10836,"Ġaulas":10837,"Ġcaj":10838,"orld":10839,"Ġmadres":10840,"stru":10841,"ĠGir":10842,"Ġleve":10843,"Ġpop":10844,"ĠIglesias":10845,"Ġprimarias":10846,"ĠCarb":10847,"Ġejemplos":10848,"ĠsucediÃ³":10849,"Ġinmediaciones":10850,"ĠurbanÃŃstica":10851,"Ġfavoritos":10852,"Ġtestimonio":10853,"Ġmecanismos":10854,"Ġpist":10855,"Ġdesastre":10856,"ĠTes":10857,"ĠDem":10858,"Ġpagado":10859,"Ġreglas":10860,"Ġgramos":10861,"Ġ78":10862,"Ġposteriores":10863,"Ġreunido":10864,"Ġpromotores":10865,"ĠabandonÃ³":10866,"Ġulti":10867,"ĠconsolidaciÃ³n":10868,"ĠVargas":10869,"91":10870,"EL":10871,"Ġeficiencia":10872,"Ġqueja":10873,"dico":10874,"ĠfrÃŃa":10875,"lex":10876,"ĠFerro":10877,"llÃ³n":10878,"ĠNunca":10879,"carril":10880,"ĠEstad":10881,"Ġinvolu":10882,"ĠCorts":10883,"ĠQa":10884,"Ġprofesion":10885,"ĠacompaÃ±a":10886,"Ġjefes":10887,"ĠRipoll":10888,"Ġadmitido":10889,"Ġciertos":10890,"ecretario":10891,"ĠComunicaciÃ³n":10892,"ĠextinciÃ³n":10893,"ĠDÃŃez":10894,"ĠGonzalo":10895,"ĠMala":10896,"ĠJan":10897,"Ġpositivos":10898,"Ġsubsi":10899,"Ġdesmante":10900,"micas":10901,"letas":10902,"Ġbau":10903,"ĠBull":10904,"ĠBÃ©lgica":10905,"licas":10906,"Ġconfec":10907,"Ġproductores":10908,"ĠRodri":10909,"Ġbanderas":10910,"Ġdestacados":10911,"Ġrespecta":10912,"Ġnombrado":10913,"Ġefectiva":10914,"Ġcolaboradores":10915,"Ġislam":10916,"Ġadministrativa":10917,"Ġosci":10918,"Ġlimitado":10919,"Ġpotenciar":10920,"Ġradical":10921,"Ġvirtud":10922,"ĠdemocrÃ¡tica":10923,"Ġhorizonte":10924,"ĠWikileaks":10925,"Fern":10926,"osti":10927,"orro":10928,"viendo":10929,"lique":10930,"tegi":10931,"Ġacud":10932,"Ġacoso":10933,"Ã³micas":10934,"itz":10935,"ĠPak":10936,"ĠPoco":10937,"ĠCanaria":10938,"Ġrenuncia":10939,"Ġentrevist":10940,"ĠTelefÃ³nica":10941,"ĠAntequera":10942,"Ġrenunciar":10943,"ĠexhibiciÃ³n":10944,"Ġtejido":10945,"Ġexactamente":10946,"Ġeliminatoria":10947,"inu":10948,"Ġalturas":10949,"Ġpasi":10950,"Ġtenor":10951,"Ġconforme":10952,"Ġcalma":10953,"ĠPort":10954,"Ġutilizando":10955,"ĠincreÃŃble":10956,"Ġ1994":10957,"Ġacercar":10958,"Ġaseguraba":10959,"Ġenfrenta":10960,"ĠCatalunya":10961,"ĠartÃŃstica":10962,"Ġeducativos":10963,"ĠsustituciÃ³n":10964,"IO":10965,"ĠcesiÃ³n":10966,"Ġsevill":10967,"Ġrecep":10968,"bidas":10969,"Ġgim":10970,"Ġduros":10971,"ĠLÃŃnea":10972,"Ġmutu":10973,"ĠFil":10974,"Ġpatio":10975,"ĠAlgo":10976,"ĠComunidades":10977,"Ġeditorial":10978,"Ġdestr":10979,"ĠSag":10980,"Ġdictad":10981,"Ġniega":10982,"Ġdetectado":10983,"Ġretrib":10984,"Ġcombate":10985,"Ġirregularidades":10986,"ĠÃºtil":10987,"ĠStreet":10988,"cencia":10989,"uede":10990,"Ã³nimo":10991,"Ġcarden":10992,"Ġconserva":10993,"ĠVigo":10994,"Ġvuelven":10995,"Ġjefa":10996,"Ġmultina":10997,"Ġfacilidad":10998,"Ġadministrativo":10999,"Ġmodificar":11000,"Ġterremoto":11001,"ĠimpresiÃ³n":11002,"ĠacogerÃ¡":11003,"ĠjardÃŃn":11004,"Ã±igo":11005,"Ġbicicleta":11006,"fin":11007,"ku":11008,"rirÃ¡":11009,"ĠPRC":11010,"seos":11011,"versiÃ³n":11012,"ĠAlarte":11013,"Ġcortes":11014,"geno":11015,"Ġexigencias":11016,"Ġsueldos":11017,"Ġconsecutiva":11018,"guardia":11019,"ĠFrente":11020,"ĠHumanos":11021,"ĠConsorcio":11022,"Ġestan":11023,"ĠAsia":11024,"Ġdije":11025,"Ġtrai":11026,"Ġconocimientos":11027,"Ġrecupera":11028,"Ġfuncionar":11029,"Ġconfiesa":11030,"ĠMuchos":11031,"Ġdeterminado":11032,"ĠVerdad":11033,"ĠclÃ¡sicos":11034,"ĠenergÃŃas":11035,"Ġadicional":11036,"landÃ©s":11037,"Ġfederal":11038,"PE":11039,"camos":11040,"kin":11041,"Ġeco":11042,"ĠcÃ©sped":11043,"inÃ³":11044,"inero":11045,"rist":11046,"ĠCuenca":11047,"Ġcompi":11048,"ĠIbar":11049,"Ġmotos":11050,"mandad":11051,"Ġasigna":11052,"Ġurbanos":11053,"Ġlamenta":11054,"Ġpeligroso":11055,"ĠnÃºcleo":11056,"08":11057,"tones":11058,"mita":11059,"ĠFlores":11060,"Ġrecti":11061,"Ġpesca":11062,"ĠCoordin":11063,"Ġvotantes":11064,"ĠcuÃ¡les":11065,"Ġdormir":11066,"Ġtesis":11067,"ĠcÃºb":11068,"Ġantecedentes":11069,"Ã¡u":11070,"ĠAgua":11071,"Ġcompara":11072,"Ġtrasvase":11073,"berÃ¡":11074,"Ġproduzca":11075,"Ġplantear":11076,"Ġdesierto":11077,"ĠcÃ¡ntabra":11078,"ĠenergÃ©tico":11079,"ĠPicasso":11080,"ĠBryant":11081,"--":11082,"Era":11083,"Esa":11084,"paciÃ³n":11085,"ĠharÃŃa":11086,"ĠVÃŃa":11087,"Ġdisper":11088,"Ġrin":11089,"Ġindicador":11090,"ĠWeb":11091,"onios":11092,"Ġinteresa":11093,"Ġaumentando":11094,"Ġdisponen":11095,"Ġinstalar":11096,"ĠjugarÃ¡":11097,"Ġcolocado":11098,"cuentro":11099,"ĠurbanÃŃstico":11100,"ĠAires":11101,"ĠInvestigaciÃ³n":11102,"laridad":11103,"ob":11104,"vaciÃ³n":11105,"zul":11106,"Ġsobr":11107,"ĠNadie":11108,"Ġmesas":11109,"Ġformul":11110,"Ġreduce":11111,"kov":11112,"tenible":11113,"Ġpiedras":11114,"trices":11115,"ĠVelasco":11116,"ĠautomÃ³vil":11117,"Ġcombustible":11118,"Cor":11119,"Ġpecho":11120,"ann":11121,"Ġesquina":11122,"Ġojo":11123,"Ġbon":11124,"Ġmach":11125,"minente":11126,"Ġpersonalmente":11127,"Ġconsejeros":11128,"Ġganadores":11129,"ĠWal":11130,"Ġtorero":11131,"ĠmÃ¡ximos":11132,"Ġbasada":11133,"Ġejecutiva":11134,"ĠbritÃ¡nicos":11135,"ĠFederico":11136,"ĠHabÃŃa":11137,"Ġliquidez":11138,"ĠiluminaciÃ³n":11139,"Ġembarcaciones":11140,"forn":11141,"gicos":11142,"ÃŃda":11143,"dom":11144,"amas":11145,"taje":11146,"Ã±Ã¡n":11147,"Ġexti":11148,"Ġtrajes":11149,"Ġrecientes":11150,"Ġ66":11151,"Ġmalas":11152,"plona":11153,"Ġobligaciones":11154,"ĠTrabaj":11155,"Ġaclarar":11156,"Ġasistieron":11157,"Ġdefinir":11158,"ot":11159,"rÃºr":11160,"dela":11161,"Ġenorm":11162,"Ġthe":11163,"Ġcomb":11164,"Ġprobar":11165,"Ġsienten":11166,"Ġvieja":11167,"Ġpoderes":11168,"Ġpotente":11169,"ĠfinalizÃ³":11170,"Ġcontratar":11171,"igÃ¼":11172,"Ġllevaban":11173,"Ġdedicar":11174,"Ġmantenerse":11175,"ĠautÃ³nomos":11176,"ĠNiÃ±o":11177,"Ġduplic":11178,"Ġaveri":11179,"ĠclÃŃnica":11180,"Ġcerebro":11181,"ĠescÃ¡ndalo":11182,"estructuraciÃ³n":11183,"07":11184,"lara":11185,"pica":11186,"rÃŃas":11187,"tol":11188,"Ġagencias":11189,"rimir":11190,"Ġsint":11191,"Ġrestantes":11192,"Ġdocena":11193,"Ġads":11194,"Ġposibili":11195,"ĠComis":11196,"Ġintervenido":11197,"Ġfacturas":11198,"Ġcruce":11199,"Ġintegrado":11200,"undamente":11201,"Ġcastigo":11202,"ĠÃŃnte":11203,"Ġcomisiones":11204,"Ġamarilla":11205,"ĠÃ¡rbitro":11206,"ME":11207,"mÃ¡ticos":11208,"smos":11209,"ĠquerÃŃan":11210,"Ġmental":11211,"ĠCres":11212,"ĠEibar":11213,"Ġcometer":11214,"ĠAT":11215,"Ġina":11216,"abar":11217,"ĠpedÃŃa":11218,"Ġcrece":11219,"Ġhecha":11220,"Ġcalcul":11221,"Ġexplicaba":11222,"Ġtranscurso":11223,"Ġcantera":11224,"vancia":11225,"Ġproceder":11226,"Ġescenas":11227,"Ġurbana":11228,"ĠpatrÃ³n":11229,"Ġrepunte":11230,"ĠdemocrÃ¡tico":11231,"Ġimponer":11232,"Ġsensaciones":11233,"Ġpiensan":11234,"egos":11235,"lulas":11236,"up":11237,"vÃŃan":11238,"we":11239,"Ġrebel":11240,"Ġindu":11241,"Ġdiaria":11242,"Ġsil":11243,"ĠBena":11244,"rumb":11245,"Ġcigar":11246,"ĠAlt":11247,"Ġplato":11248,"jeras":11249,"ĠrecibirÃ¡n":11250,"Ġpuertos":11251,"Ġportavoces":11252,"ĠAdministraciones":11253,"Ġbolsas":11254,"ĠempeÃ±o":11255,"ĠOviedo":11256,"ĠTrinidad":11257,"Ġetarra":11258,"Ġpura":11259,"Ġmasa":11260,"tumbre":11261,"Ġprej":11262,"ĠtratÃ³":11263,"ĠHami":11264,"Ġasfal":11265,"ĠcreciÃ³":11266,"Ã©cdo":11267,"Ġgrav":11268,"Ġvengan":11269,"ĠArri":11270,"ĠCoruÃ±a":11271,"Ġaceptado":11272,"Ġizquierdo":11273,"Ġetapas":11274,"Ġretrasos":11275,"57":11276,"arme":11277,"Ġesque":11278,"Ġid":11279,"erife":11280,"Ġpasaba":11281,"quÃ©s":11282,"Ġdonosti":11283,"toriales":11284,"Ġllaman":11285,"ĠEstepona":11286,"kovic":11287,"Ġconducta":11288,"Ġcuadrado":11289,"ĠcontinuÃ³":11290,"Ġdelegada":11291,"ĠparticiparÃ¡n":11292,"Ġanuncios":11293,"Ġdiploma":11294,"Ġsentimientos":11295,"Ġoptimista":11296,"Ġsantander":11297,"ĠexpansiÃ³n":11298,"Ġperegr":11299,"56":11300,"mon":11301,"mada":11302,"sada":11303,"undo":11304,"ĠMac":11305,"mont":11306,"antÃ¡n":11307,"ilos":11308,"Ġinferiores":11309,"Ġorquesta":11310,"Ġsolvencia":11311,"Ġmillar":11312,"ĠManolo":11313,"Ġpalo":11314,"Ġafirmar":11315,"orial":11316,"ĠMoratinos":11317,"Ġabsor":11318,"Ġcruzar":11319,"novaciÃ³n":11320,"Ġlector":11321,"Ġsorprendente":11322,"ĠbÃ¡sico":11323,"ĠtransformaciÃ³n":11324,"DO":11325,"rico":11326,"Ġtest":11327,"Ġnoroeste":11328,"Ġremedio":11329,"Ã©ramos":11330,"ĠPrado":11331,"cionalidad":11332,"Ġsitios":11333,"ĠIÃ±aki":11334,"ĠConde":11335,"media":11336,"Ġtarjetas":11337,"ĠmÃ¡r":11338,"Ġtrist":11339,"ĠguÃŃa":11340,"Ġseguidos":11341,"Ġmaterias":11342,"Ġgarantiza":11343,"ĠClÃŃn":11344,"Ġindividuos":11345,"ĠiraquÃŃ":11346,"Ġligeramente":11347,"dea":11348,"dere":11349,"ĠhÃ©ro":11350,"Ġsugi":11351,"Ġinse":11352,"Ġincau":11353,"Ġlleve":11354,"Ġinfec":11355,"Ġcore":11356,"Ġfaltas":11357,"ĠDeporte":11358,"ĠCarme":11359,"Ġfijar":11360,"Ġ2014":11361,"ĠescribiÃ³":11362,"ĠautonÃ³micos":11363,"Ġbombas":11364,"Ġemergencias":11365,"Ġremitido":11366,"gÃ¼enza":11367,"ĠplÃ¡stico":11368,"Ġparroquia":11369,"uz":11370,"Ġnaran":11371,"Ġreple":11372,"urcia":11373,"ĠBÃ¡r":11374,"ĠTajo":11375,"Ġpredomin":11376,"ĠNÃº":11377,"ĠanÃ©cdo":11378,"Ġmini":11379,"Ġproductividad":11380,"Ġoptado":11381,"Ġanteriormente":11382,"Ġchico":11383,"Ġapropi":11384,"Ġirse":11385,"ĠCorrea":11386,"ĠinscripciÃ³n":11387,"Ġintervenir":11388,"Ġreclamado":11389,"Ġmagni":11390,"Ġalicantina":11391,"ĠXabi":11392,"Ġcredibilidad":11393,"94":11394,"sora":11395,"ĠCuent":11396,"Ġnoventa":11397,"ĠMarÃŃtimo":11398,"Ġtuve":11399,"ĠUnida":11400,"Ġpreparados":11401,"Ġceder":11402,"ĠGaza":11403,"Ġescasos":11404,"witter":11405,"ĠEstadÃŃstica":11406,"Ant":11407,"lum":11408,"Ġenamor":11409,"ĠERC":11410,"ĠAai":11411,"atra":11412,"Ġprefer":11413,"Ġmate":11414,"tasar":11415,"graciÃ³n":11416,"zaro":11417,"Ġsalga":11418,"ĠprÃ³r":11419,"diÃ³s":11420,"Ġaseguraron":11421,"ĠMÃ¡r":11422,"Ġ1990":11423,"Ġatraer":11424,"Ġexigencia":11425,"Ġnucleares":11426,"Ġcaballo":11427,"Ġtesor":11428,"ĠplanificaciÃ³n":11429,"fornia":11430,"Li":11431,"estra":11432,"mpa":11433,"selo":11434,"Ġrespuestas":11435,"ĠDonos":11436,"ĠFI":11437,"Ġpaciencia":11438,"Ġsingular":11439,"Ġfinaliz":11440,"ĠverÃ¡n":11441,"Ġsalarial":11442,"Ġantic":11443,"gela":11444,"Ġdejaba":11445,"Ġprevias":11446,"Ġinvertido":11447,"Ġ180":11448,"ĠseguirÃ¡n":11449,"Ġaprovechando":11450,"Ġcedido":11451,"ĠBill":11452,"Ġmurciana":11453,"Ġrecalcado":11454,"ĠenergÃ©tica":11455,"ĠcÃ©lulas":11456,"ĠÃŃnti":11457,"Ġtextos":11458,"Ġperspectivas":11459,"ĠsÃŃmbolo":11460,"dolfo":11461,"tÃŃan":11462,"Ġdecant":11463,"Ġinesper":11464,"ĠSE":11465,"ĠFra":11466,"ĠcomposiciÃ³n":11467,"Ġfinalidad":11468,"ĠquirÃºr":11469,"ĠMartin":11470,"ĠVald":11471,"Ġpenins":11472,"Ġrapi":11473,"Ġpermitan":11474,"Ġvices":11475,"Ġcantar":11476,"Ġcolum":11477,"ĠSoto":11478,"ĠvÃŃdeos":11479,"Ġacabe":11480,"Ã©ticas":11481,"Ġfaculta":11482,"Ġtrasladados":11483,"Ġextender":11484,"ĠperiÃ³dicos":11485,"akar":11486,"ĠdurÃ³":11487,"ĠgastronomÃŃa":11488,"Ġmecanismo":11489,"ĠcÃ¡lculos":11490,"ĠPakistÃ¡n":11491,"otas":11492,"Ġeludi":11493,"Ġvano":11494,"tables":11495,"ĠMesa":11496,"Ġviabilidad":11497,"Ġdotado":11498,"Ġcostumbre":11499,"ĠMontes":11500,"Ġrecogido":11501,"ÃŃsimos":11502,"ĠPastor":11503,"Ġdespedida":11504,"ĠPenÃŃnsula":11505,"sionistas":11506,"ĠcirugÃŃa":11507,"ĠSuecia":11508,"Ġmoneda":11509,"lton":11510,"Ã¶":11511,"ĠestÃ¡s":11512,"ĠCA":11513,"ceta":11514,"Ġlehendakari":11515,"echa":11516,"Ġabunda":11517,"Ġcentrado":11518,"Ġreglamento":11519,"ĠCaste":11520,"ĠMateo":11521,"Ġrum":11522,"Ġcomparten":11523,"provech":11524,"ulaciones":11525,"Ġislas":11526,"Ġreligiosa":11527,"ĠcontaminaciÃ³n":11528,"ĠCatedral":11529,"):":11530,"Ġpene":11531,"omÃ©":11532,"Ġveri":11533,"ĠrecepciÃ³n":11534,"ĠTrib":11535,"ernidad":11536,"Ġpata":11537,"Ġafirman":11538,"Ġrurales":11539,"Ġagrad":11540,"ĠAntÃ³n":11541,"Ġinternautas":11542,"Ġhumanidad":11543,"Ġautop":11544,"Ġmoderno":11545,"Ġahorrar":11546,"Ġadjudica":11547,"Ġsospecha":11548,"Ġpresupuestaria":11549,"Ġseguramente":11550,"Ġcristal":11551,"ĠBuenos":11552,"ĠPamplona":11553,"ĠMohamed":11554,"ĠPajÃŃn":11555,"ĠcatedrÃ¡tico":11556,"ill":11557,"ĠdarÃ¡n":11558,"tecimiento":11559,"Ġcompuesta":11560,"Ġencuest":11561,"Ġdefine":11562,"Ġ76":11563,"ĠBarrios":11564,"Ġrelata":11565,"Ġsaneamiento":11566,"Ġtitularidad":11567,"Ġherida":11568,"Ġadelantar":11569,"ĠEspaÃ±ol":11570,"Ġgobernar":11571,"ĠlÃ³gica":11572,"ĠBravo":11573,"ĠAaiÃºn":11574,"Zapatero":11575,"inti":11576,"Ġsucesi":11577,"ĠMÃ©di":11578,"ĠilÃŃ":11579,"Ġrecta":11580,"ĠEspa":11581,"Ġganadora":11582,"Ġdeportes":11583,"Ġ1991":11584,"Ġcineasta":11585,"Ġfortaleza":11586,"grad":11587,"lamiento":11588,"cianos":11589,"Ġconcili":11590,"ĠIvÃ¡n":11591,"ĠAlcÃ¡":11592,"portes":11593,"Ġdecisivo":11594,"Ġroji":11595,"ĠKir":11596,"ĠPolonia":11597,"Ġrecortar":11598,"ĠcumpliÃ³":11599,"Ġdisfra":11600,"Ġingresado":11601,"Ġindividuo":11602,"Ġjardines":11603,"ĠimpidiÃ³":11604,"Ġmicro":11605,"Ġpublica":11606,"ĠHonor":11607,"Ġfurgoneta":11608,"vento":11609,"orado":11610,"Ġtoler":11611,"Ġestando":11612,"ĠesquÃŃ":11613,"ĠEdi":11614,"laba":11615,"ĠLl":11616,"Ġcance":11617,"Ġuvas":11618,"ĠRock":11619,"Ġ77":11620,"Ġaparte":11621,"ĠfederaciÃ³n":11622,"ĠsurgiÃ³":11623,"ĠLucÃŃa":11624,"Ġadquirido":11625,"Ġlamentado":11626,"ĠmadrileÃ±os":11627,"Ġcentenares":11628,"Ġreprodu":11629,"ĠelectrÃ³nica":11630,"cÃ©u":11631,"Ã©simo":11632,"Ġfar":11633,"Ġreh":11634,"Ġalb":11635,"liga":11636,"Ġcota":11637,"atÃ³n":11638,"Ġinternos":11639,"Ġpoli":11640,"trados":11641,"Ġopina":11642,"Ġ61":11643,"Ġbarri":11644,"Ġdebut":11645,"Ġantiterrorista":11646,"Ġgalo":11647,"Ġpublicada":11648,"ĠGregor":11649,"Ġfases":11650,"Ġpelea":11651,"ĠApple":11652,"Ġenemigo":11653,"Ġaterri":11654,"Ġclausura":11655,"Ġbolsillo":11656,"Ġcementerio":11657,"ĠGabriel":11658,"Ġgigantes":11659,"Ġpeninsular":11660,"Jo":11661,"dÃ¡n":11662,"cismo":11663,"Ġproxi":11664,"ĠDakar":11665,"ezan":11666,"ĠElla":11667,"cons":11668,"Ġhierro":11669,"Ġprevios":11670,"Ġcultivo":11671,"Ġsuperan":11672,"ĠexistÃŃa":11673,"ĠpareciÃ³":11674,"Ġconvocada":11675,"ĠGrande":11676,"Ġsirven":11677,"ĠBaltasar":11678,"Ġrebajas":11679,"Ġconsecutivas":11680,"ĠChaves":11681,"Ġmaravi":11682,"Ġdesprende":11683,"ĠIzquierda":11684,"Vamos":11685,"pones":11686,"Ġclan":11687,"rente":11688,"Ġhisp":11689,"Ġestat":11690,"ĠBul":11691,"lice":11692,"Ġpidiendo":11693,"Ġpienso":11694,"ĠtransiciÃ³n":11695,"Ġposiblemente":11696,"Ġgestion":11697,"Ġderrumb":11698,"ĠcrÃŃticos":11699,"Ġmueve":11700,"Pozo":11701,"ĠhÃ¡bitos":11702,"tentes":11703,"Ġdeudas":11704,"Ġdecena":11705,"Ġsat":11706,"ĠAhÃŃ":11707,"Ġnovel":11708,"ĠmarÃŃtimo":11709,"Ġcreada":11710,"Ġcreador":11711,"Ġnace":11712,"Ġhielo":11713,"Ġcostado":11714,"Ġsituarse":11715,"Ġindire":11716,"Ġsubasta":11717,"Ġparedes":11718,"Ġbasa":11719,"Ġabandonado":11720,"Ġdisparos":11721,"polit":11722,"Ġvarones":11723,"06":11724,"MP":11725,"darios":11726,"lÃ¡n":11727,"pin":11728,"Ġtali":11729,"ĠAso":11730,"ĠBon":11731,"bren":11732,"Ġpagan":11733,"ÃŃtima":11734,"Ġcentra":11735,"Ġrodilla":11736,"Ġcanales":11737,"gelaciÃ³n":11738,"Ġincluyendo":11739,"Ġconcedido":11740,"Ġinvestiga":11741,"ĠrecuperÃ³":11742,"ĠAust":11743,"Ġrelevancia":11744,"Ġinevitable":11745,"TO":11746,"tÃ©s":11747,"yol":11748,"arquÃŃa":11749,"Ġnatal":11750,"sio":11751,"Ġcopa":11752,"pone":11753,"Ġricos":11754,"ĠclimÃ¡tico":11755,"ĠextraÃ±o":11756,"ĠBotÃŃn":11757,"Ġnovedos":11758,"Ġost":11759,"Ġadaptar":11760,"Ġsufrimiento":11761,"ĠTenerife":11762,"ĠHugo":11763,"Ġrecomendaciones":11764,"yn":11765,"Ġhas":11766,"Ġrenovar":11767,"Ġalm":11768,"ĠSistema":11769,"Ġpromesas":11770,"mido":11771,"Ġvientos":11772,"Ġvalora":11773,"Ġ73":11774,"Ġesperaban":11775,"Ġelegida":11776,"Ġoriental":11777,"Ġincorporar":11778,"Ġperfecta":11779,"ĠContra":11780,"Ġreligioso":11781,"ĠimaginaciÃ³n":11782,"Ġmedioambiental":11783,"ĠMÃ©ndez":11784,"Ġdesesper":11785,"ĠRoy":11786,"ĠBr":11787,"Ġpresumi":11788,"guÃ©":11789,"Ġvemos":11790,"Ġmanga":11791,"Ġche":11792,"Ġresultar":11793,"ĠChacÃ³n":11794,"Ġestuviera":11795,"Ġforo":11796,"grafos":11797,"Ġtrem":11798,"ĠCabo":11799,"Ġindividuales":11800,"Ġsorpresas":11801,"ĠtelÃ©fonos":11802,"Ġfichaje":11803,"Ġexcepto":11804,"ĠPosteriormente":11805,"ĠLisboa":11806,"ctas":11807,"nal":11808,"Ġates":11809,"Ã±Ã³":11810,"ĠAse":11811,"ĠPons":11812,"locu":11813,"Ġexca":11814,"ĠtocÃ³":11815,"Ġperdiendo":11816,"Ġmarcada":11817,"Ġcaro":11818,"ĠInmigra":11819,"Ã³rica":11820,"utaria":11821,"Ġusos":11822,"ntiÃ³":11823,"Ġcalifica":11824,"Ġintegran":11825,"Ġanotar":11826,"Ġrenovables":11827,"Ġaspirantes":11828,"Ġembarazo":11829,"Ġgabinete":11830,"ĠcÃºbicos":11831,"Ent":11832,"ejos":11833,"gicas":11834,"hac":11835,"Ġrent":11836,"Ġestructuras":11837,"ĠSha":11838,"Ġcobra":11839,"ĠTarragona":11840,"Ġcontac":11841,"Ġrecre":11842,"idente":11843,"ĠEstaciÃ³n":11844,"Ã³micos":11845,"igh":11846,"Ġ74":11847,"ĠArchi":11848,"Ġrespectivos":11849,"Ġfelicidad":11850,"Ġordenadores":11851,"Ġentrenar":11852,"Ġpensaba":11853,"Ġgustado":11854,"ĠVillanueva":11855,"Ġcuantos":11856,"Ġmantuvieron":11857,"Ġofensiva":11858,"ĠcÃºpula":11859,"ĠhelicÃ³ptero":11860,"Ġambulancia":11861,"ĠPatricia":11862,"As":11863,"junto":11864,"Ġsenda":11865,"Ġencer":11866,"ĠEli":11867,"ĠPra":11868,"ĠOTAN":11869,"Ġversiones":11870,"Ġactuado":11871,"ĠIndepen":11872,"ĠeconomÃŃas":11873,"ĠdejarÃ¡":11874,"Ġregistra":11875,"Ġbalones":11876,"Ġvariable":11877,"Ġresaltado":11878,"ĠdÃ©cima":11879,"âĢĻ,":11880,"Ġatletismo":11881,"Ġdesconoce":11882,"86":11883,"93":11884,"Tampoco":11885,"andi":11886,"ĠMad":11887,"Ġib":11888,"Ġida":11889,"urÃ³":11890,"urdo":11891,"ĠIV":11892,"dure":11893,"ficadas":11894,"breras":11895,"Ġnecesitamos":11896,"Ġhabitaciones":11897,"Ġelevar":11898,"ĠmÃºsico":11899,"Ġcontinua":11900,"Ġpresidencial":11901,"Ġmasiva":11902,"Ġprofundo":11903,"Ġaborto":11904,"Ġproducirse":11905,"Ġepisodio":11906,"Ġenmiendas":11907,"Ġobservar":11908,"DA":11909,"lÃŃa":11910,"Ġmoni":11911,"Ġsuger":11912,"ĠMaj":11913,"Ġcoher":11914,"Ġpersegui":11915,"rimas":11916,"Ġtendremos":11917,"ĠâĢĶ":11918,"ĠcÃ³modo":11919,"ĠCostas":11920,"ally":11921,"Ġitalianos":11922,"ĠMenor":11923,"Ġgiro":11924,"Ġirregular":11925,"ĠdimensiÃ³n":11926,"Ġmexicano":11927,"ĠSeÃ±ora":11928,"Ġrazonable":11929,"Ġendeudamiento":11930,"ĠprÃ³rroga":11931,"Ġrumores":11932,"ctr":11933,"Ġpec":11934,"Ġvini":11935,"Ġaludi":11936,"Ġinvas":11937,"Ġpresiones":11938,"Ġintern":11939,"bai":11940,"Ġfinalizado":11941,"ĠOccidental":11942,"ĠAlb":11943,"Ġdiscapaci":11944,"ĠInnovaciÃ³n":11945,"Ġcuento":11946,"Ġpescado":11947,"Ġcandidaturas":11948,"Ġocurrir":11949,"Ġconfirmaron":11950,"Ġaprovechado":11951,"Ġcometidos":11952,"giosas":11953,"Ġcastillo":11954,"Ġflojo":11955,"ĠArmadas":11956,"Ġtraspaso":11957,"Ġsaharaui":11958,"ĠÃ¡rabe":11959,"Ġcintur":11960,"ĠArroyo":11961,"sados":11962,"Ġcen":11963,"Ġsube":11964,"ĠAENA":11965,"ĠRay":11966,"Ġmedicina":11967,"Ġpidieron":11968,"Ġediles":11969,"Ġ900":11970,"Ġrepresentar":11971,"ĠplanteÃ³":11972,"Ġemitido":11973,"ĠislÃ¡":11974,"Ġtregua":11975,"ĠVerde":11976,"Ġsorprendido":11977,"Ġagradecimiento":11978,"Ġaplausos":11979,"Ġalbergar":11980,"ĠmatizÃ³":11981,"Ġplenamente":11982,"ĠautomÃ³viles":11983,"Ġproveedores":11984,"Ġgimnas":11985,"dest":11986,"Ġdegust":11987,"Ġpulso":11988,"stica":11989,"Ġunir":11990,"doble":11991,"Ġconmigo":11992,"Ġdespre":11993,"ĠFal":11994,"irin":11995,"Ġrecibo":11996,"Ġdependiente":11997,"estivales":11998,"Ġentrevistas":11999,"Ġconservador":12000,"Ġcuanti":12001,"ĠcientÃŃfica":12002,"Ġparcelas":12003,"zara":12004,"Ġeu":12005,"Ġast":12006,"Ġcable":12007,"Ġlatino":12008,"Ã±ada":12009,"ĠBoli":12010,"ĠvivÃŃa":12011,"Ġrespira":12012,"ĠTar":12013,"Ġmagia":12014,"Ġmotores":12015,"ĠrealizarÃ¡n":12016,"Ġkm":12017,"Ġcondenados":12018,"ĠBob":12019,"Ġborrador":12020,"fradÃŃas":12021,"Ġmedicamentos":12022,"Per":12023,"Sus":12024,"Ġic":12025,"Ġportada":12026,"ĠMic":12027,"Ġproba":12028,"Ġpola":12029,"ĠIPC":12030,"Ġcompradores":12031,"Ġabonar":12032,"ĠMark":12033,"ĠEstre":12034,"Ġpeni":12035,"Ġsentencias":12036,"ĠvisitÃ³":12037,"ĠconocÃŃa":12038,"ĠMah":12039,"Ġordenado":12040,"olid":12041,"Ġpresidido":12042,"Ġapoyado":12043,"Ġimpresi":12044,"Ġdesaparecer":12045,"sange":12046,"Ġuniversitarios":12047,"Ġpracticar":12048,"Ġasistido":12049,"Ġarchivos":12050,"Ġconlleva":12051,"ĠEnergÃŃa":12052,"Cre":12053,"Gar":12054,"UN":12055,"micos":12056,"vadas":12057,"ĠinÃ©di":12058,"ĠLen":12059,"Ġdesesti":12060,"Ġcubierto":12061,"ĠmuÃ±":12062,"Ġtraje":12063,"guro":12064,"Ġmediano":12065,"ĠAlma":12066,"Ġmenudo":12067,"Ġinstancia":12068,"Ġapoya":12069,"Ġdocument":12070,"Ġterminal":12071,"ĠPremi":12072,"intza":12073,"ĠQuint":12074,"campe":12075,"ĠevaluaciÃ³n":12076,"Ġmonumento":12077,"Ġdemuestran":12078,"ĠInmaculada":12079,"rara":12080,"tanos":12081,"ĠlÃ¡g":12082,"bil":12083,"tea":12084,"ĠLui":12085,"cepti":12086,"ĠHor":12087,"ficantes":12088,"Ġcama":12089,"ciosa":12090,"Ġcalzada":12091,"ĠRoger":12092,"Ġganando":12093,"Ġasign":12094,"Ġllamados":12095,"Ġcomparte":12096,"Ġfranja":12097,"ĠrevoluciÃ³n":12098,"ĠFont":12099,"Ã¡stro":12100,"Ġinvoluc":12101,"ctiva":12102,"camientos":12103,"get":12104,"gnos":12105,"orqu":12106,"Ġsello":12107,"ĠAD":12108,"Ġaca":12109,"Ġprevar":12110,"Ġseres":12111,"Ġobserva":12112,"Ġrespondido":12113,"Ġtemporales":12114,"Ġ1993":12115,"ĠRibera":12116,"Ġciclismo":12117,"ĠPueblo":12118,"ĠSamuel":12119,"cobeo":12120,"?Â»,":12121,"acho":12122,"ctamente":12123,"eraciÃ³n":12124,"lida":12125,"gues":12126,"Ġfijo":12127,"ĠChi":12128,"ĠWorld":12129,"fique":12130,"Ġaparatos":12131,"Ġdesea":12132,"Ġexpresar":12133,"Ġcrudo":12134,"ĠPatxi":12135,"grÃ¡ficas":12136,"Ġbauti":12137,"Ġdictadura":12138,".âĢĵ":12139,"onatos":12140,"letÃŃn":12141,"ĠCano":12142,"Ġacude":12143,"Ġexce":12144,"Ġsof":12145,"ĠNer":12146,"ĠAlz":12147,"Ã³metro":12148,"Ġinterlocu":12149,"Ġfalsi":12150,"Ġdaban":12151,"ĠMejor":12152,"Ġtalla":12153,"Ġconocidas":12154,"Ġsueco":12155,"proyecto":12156,"Ġpermanecen":12157,"Ġlargas":12158,"Ġapostar":12159,"ĠcatÃ¡stro":12160,"ĠinaugurÃ³":12161,"Ġportugue":12162,"Ġocultar":12163,"Ġrepertorio":12164,"Ġecolog":12165,"ĠinspecciÃ³n":12166,"Ġsostenibilidad":12167,"ĠpermanecerÃ¡":12168,"Ġestructurales":12169,"Ġatropel":12170,"cÃŃ":12171,"nin":12172,"adillo":12173,"Ġconferencias":12174,"Ġport":12175,"ĠCat":12176,"Ġinsta":12177,"ĠPA":12178,"ĠMara":12179,"pions":12180,"ezo":12181,"Ġjuris":12182,"bilizaciÃ³n":12183,"Ġconfun":12184,"ĠParlament":12185,"Ġconceder":12186,"Ġtelevisi":12187,"ĠpretendÃŃa":12188,"Ġinformativos":12189,"ĠRosario":12190,"Ġrecomienda":12191,"Ġargentina":12192,"ĠcÃ©nti":12193,"ĠCirc":12194,"ua":12195,"osamente":12196,"chner":12197,"seguir":12198,"mis":12199,"Ġexamen":12200,"elices":12201,"ĠpercepciÃ³n":12202,"ĠToni":12203,"giados":12204,"Ġvertido":12205,"ĠIndi":12206,"Ġinvent":12207,"Ġllamas":12208,"habi":12209,"Ġinteresado":12210,"Ġdependientes":12211,"ĠObservatorio":12212,"Ġantiguas":12213,"ĠBellas":12214,"Ġconstitucional":12215,"Ġcorrida":12216,"Ġextrema":12217,"Ġrepite":12218,"Valencia":12219,"ĠaseverÃ³":12220,"Ġvenezolano":12221,"Ale":12222,"Ġ%":12223,"Ġagar":12224,"Ġcese":12225,"Ã±adi":12226,"Ġ(...)":12227,"ĠTan":12228,"Ġletrado":12229,"Ġapari":12230,"Ġrector":12231,"cesis":12232,"ĠValverde":12233,"ĠBarrio":12234,"ĠVizcaya":12235,"Ġactivistas":12236,"Ã©cnica":12237,"Ġdistrito":12238,"Ġespecializada":12239,"ĠmantenÃŃa":12240,"Ġpromete":12241,"ĠmÃ©rito":12242,"ĠErtza":12243,"Ġconcursos":12244,"ĠargumentÃ³":12245,"Ġbiblioteca":12246,"ĠsimbÃ³":12247,"Ġcustodia":12248,"ĠComisarÃŃa":12249,"Ġcro":12250,"ĠcongelaciÃ³n":12251,"Ġprocur":12252,"lito":12253,"Ġcuotas":12254,"ĠBlo":12255,"ĠTel":12256,"Ġcaos":12257,"mbres":12258,"Ġpiernas":12259,"Ġrotura":12260,"ĠWil":12261,"Ġfuturas":12262,"Ġtreintena":12263,"Ġgustan":12264,"ĠarrancÃ³":12265,"Ġfamosos":12266,"ĠCampoo":12267,"ĠenvÃŃo":12268,"Ġespaldas":12269,"Ġsensibilidad":12270,"ĠNÃºÃ±ez":12271,"pÃº":12272,"solu":12273,"Ġeng":12274,"ĠvÃŃn":12275,"ĠAbu":12276,"Ġgeni":12277,"girÃ¡":12278,"Ġdotar":12279,"ĠZar":12280,"Ġlocalizar":12281,"Ġ125":12282,"ĠconducciÃ³n":12283,"ĠdesarrollarÃ¡":12284,"ĠcolocÃ³":12285,"Ġreconocen":12286,"Ġsignificativo":12287,"Ġagradecido":12288,"Ġcorrientes":12289,"Ġrelevante":12290,"ĠreligiÃ³n":12291,"Ġexcelencia":12292,"Cont":12293,"ĠcadÃ¡veres":12294,"Ġiguales":12295,"Nosotros":12296,"Pues":12297,"berna":12298,"osex":12299,"uevas":12300,"ics":12301,"Ġvinos":12302,"rillo":12303,"Ġinminente":12304,"ĠMem":12305,"ĠIber":12306,"Ġcostumb":12307,"Ġhomosex":12308,"Ġiniciaron":12309,"comunidad":12310,"Ġexpresa":12311,"ĠdisputÃ³":12312,"Ġsensible":12313,"Ġfrutos":12314,"senal":12315,"ĠBBVA":12316,"Tra":12317,"jaron":12318,"vali":12319,"inco":12320,"titudes":12321,"Ġalf":12322,"ĠCatÃ³":12323,"top":12324,"Ġgloria":12325,"Ġprogreso":12326,"ĠTwitter":12327,"ĠUnos":12328,"peras":12329,"trin":12330,"biliario":12331,"Ġsaluda":12332,"ĠescÃ©n":12333,"ĠponÃŃa":12334,"Ġsubdele":12335,"ĠdedicaciÃ³n":12336,"terrÃ¡nea":12337,"Ġhablaba":12338,"Ġeducativa":12339,"Ġsencilla":12340,"ĠgrabaciÃ³n":12341,"Ġamarillo":12342,"ĠisraelÃŃes":12343,"Ġpromesa":12344,"ĠTerritorial":12345,"darÃ¡":12346,"tiera":12347,"ristas":12348,"ĠCur":12349,"ĠPin":12350,"ĠMetro":12351,"ĠloterÃŃa":12352,"untado":12353,"ross":12354,"Ġcomplica":12355,"Ġpersonalidades":12356,"ctoral":12357,"Ġcerrados":12358,"ecuciÃ³n":12359,"Ġbarra":12360,"Ġdirigidas":12361,"licante":12362,"Ġsacado":12363,"Ġplanteamiento":12364,"Ġrevisar":12365,"Ġsatisfa":12366,"ĠidentificaciÃ³n":12367,"Ġtratamientos":12368,"Ġaplaudi":12369,"Ġpertenecen":12370,"Ġtribu":12371,"Ġteatral":12372,"Ġinocencia":12373,"Ġprioridades":12374,"Ġorgulloso":12375,"ĠlicitaciÃ³n":12376,"ĠErtzaintza":12377,"Lar":12378,"ule":12379,"ueda":12380,"onÃ³":12381,"ĠSIP":12382,"Ġcobro":12383,"Ġproduciendo":12384,"Ġpatrimoni":12385,"Ġbalear":12386,"ĠvalorÃ³":12387,"ĠencargÃ³":12388,"icho":12389,"Ġcompeticiones":12390,"Ġexigido":12391,"Ġmanifiesta":12392,"ĠfacturaciÃ³n":12393,"Ġmotoci":12394,"Ġdesconocido":12395,"Ġmilagro":12396,"cebook":12397,"Ġrapidez":12398,"Alicante":12399,"Int":12400,"cr":12401,"jaba":12402,"Ġlla":12403,"amentos":12404,"ĠPuig":12405,"chÃŃs":12406,"ĠHam":12407,"bacho":12408,"Ġvela":12409,"Ġnavar":12410,"Ã¡til":12411,"ĠÃģrea":12412,"fiel":12413,"Ġcorrecto":12414,"Ġcorrecta":12415,"Ġcampeona":12416,"ĠexigiÃ³":12417,"ĠcomprometiÃ³":12418,"Ġbuque":12419,"ĠCCOO":12420,"ĠdiplomÃ¡ticos":12421,"ĠCEOE":12422,"Ġresuelto":12423,"Ġinmensa":12424,"ĠRenfe":12425,"ĠCalifornia":12426,"vente":12427,"Ã³bal":12428,"quista":12429,"Ġdefec":12430,"ĠseÃ±ora":12431,"Ġllevamos":12432,"ĠdebÃŃan":12433,"Ġejemplar":12434,"Ġ140":12435,"ĠreparaciÃ³n":12436,"Ġocupado":12437,"chester":12438,"Ġinterpretar":12439,"Ġnacionalista":12440,"ĠEmpresarios":12441,"Ġferrocarril":12442,"Ġreivindicaciones":12443,"Ġcautelar":12444,"09":12445,"83":12446,"Tres":12447,"ebra":12448,"rini":12449,"Ġoc":12450,"Ġentienden":12451,"ĠINE":12452,"Ġcaud":12453,"ĠHuelva":12454,"ĠConcha":12455,"Ġescrib":12456,"Ġfaena":12457,"ĠCiencia":12458,"Ġvisitado":12459,"ligencia":12460,"Ġdesarrollando":12461,"ĠdedicÃ³":12462,"ĠPalmas":12463,"ĠPortuaria":12464,"ĠestadÃŃstica":12465,"Ġbillete":12466,"ĠcÃ¡lculo":12467,"ĠRichard":12468,"ideportivo":12469,"Ġtus":12470,"Ġfer":12471,"Ġretorno":12472,"ced":12473,"ĠDec":12474,"ĠNin":12475,"Ġ71":12476,"Ġcultiv":12477,"Ġeleva":12478,"Ġlanza":12479,"Ġreclamaciones":12480,"ĠAtlÃ¡nt":12481,"Ġjustifica":12482,"ĠaÃ©reos":12483,"Ġesperanzas":12484,"Ġcastellon":12485,"Ġcurioso":12486,"?,":12487,"vÃŃ":12488,"vamos":12489,"yl":12490,"Ġsigan":12491,"ĠFC":12492,"gil":12493,"Ġmaestros":12494,"Ġcaza":12495,"ĠautÃ³":12496,"Ġdopaje":12497,"ĠMarcel":12498,"Ġcerv":12499,"Ġroton":12500,"ĠseÃ±ales":12501,"favor":12502,"ĠdinÃ¡mica":12503,"ĠPrecisamente":12504,"partamentos":12505,"ĠviolaciÃ³n":12506,"Ġchavales":12507,"Ġmedallas":12508,"Ġretroceso":12509,"Ġexportaciones":12510,"ĠextradiciÃ³n":12511,"ĠBernabÃ©u":12512,"ĠCrespo":12513,"NG":12514,"Otros":12515,"cran":12516,"ĠAvenida":12517,"arizaciÃ³n":12518,"ĠBono":12519,"Ġprevenir":12520,"ĠElPozo":12521,"Ġfincas":12522,"ĠAlbert":12523,"Ġabuelo":12524,"Ġencamin":12525,"Ġfuturos":12526,"Ġacabaron":12527,"Ġpromotor":12528,"ĠgalerÃŃa":12529,"Ġreligiosos":12530,"ĠAndy":12531,"ĠcombinaciÃ³n":12532,"Ġcercanos":12533,"Ġfestejos":12534,"Amb":12535,"fit":12536,"line":12537,"Ġaver":12538,"ĠtÃŃo":12539,"Ġhuy":12540,"ĠAsi":12541,"tosa":12542,"Ġsoporte":12543,"Ġletra":12544,"Ġleves":12545,"Ġsuscrito":12546,"ĠrÃŃos":12547,"Ġbienvenida":12548,"Ġrigor":12549,"bex":12550,"Ġrato":12551,"ĠordenaciÃ³n":12552,"Ġalrededores":12553,"Ġpantallas":12554,"Ġincluidas":12555,"Ġapreci":12556,"ĠproporciÃ³n":12557,"Ġempiezan":12558,"ĠGracias":12559,"Ġfrecuente":12560,"Ġensayo":12561,"Ġasalto":12562,"Ġculpable":12563,"Ġencuestados":12564,"vestre":12565,"Ġente":12566,"ĠadiÃ³s":12567,"rola":12568,"Ġreloj":12569,"olÃŃn":12570,"ĠPep":12571,"logÃŃa":12572,"ĠÂ«Â¡":12573,"uerzo":12574,"cuador":12575,"Ġ350":12576,"ĠtrabajÃ³":12577,"umer":12578,"ĠWe":12579,"Ġcoli":12580,"Ġevolu":12581,"ĠRossi":12582,"Ġaprendiz":12583,"drola":12584,"Ġansiedad":12585,"ĠHamilton":12586,"Ġacta":12587,"ĠIsi":12588,"Ġmacro":12589,"Ġcae":12590,"Ġimpone":12591,"Ġabuso":12592,"Ġcreadores":12593,"ĠrÃŃ":12594,"ĠCascos":12595,"Ġsentado":12596,"ĠLeo":12597,"ĠGarrido":12598,"Ã³gico":12599,"Ġdespliegue":12600,"Ġfrag":12601,"ĠregresÃ³":12602,"Ġglob":12603,"Poco":12604,"ĠEuskal":12605,"Ġveteranos":12606,"Ġacumulado":12607,"Ġconforman":12608,"ĠMagdal":12609,"Ġoctavos":12610,"Ġentusiasmo":12611,"ymes":12612,"Ġgrada":12613,"Ġsoter":12614,"Ġsusci":12615,"Ġexplor":12616,"Ġhormi":12617,"ĠMoto":12618,"ĠcompaÃ±era":12619,"Ġtrono":12620,"ĠMurray":12621,"Ġelegidos":12622,"Algunos":12623,"Ġliberal":12624,"ĠdesarrollÃ³":12625,"Ġaficionado":12626,"Ġreflejan":12627,"Ġadoptado":12628,"Ġblog":12629,"Ġbelga":12630,"Ã³rmulas":12631,"ĠDeportiva":12632,"ĠseparaciÃ³n":12633,"illida":12634,"Ġsupervivencia":12635,"Ġindefini":12636,"Ġincapaz":12637,"US":12638,"ware":12639,"Ġpsiqui":12640,"Ġenfo":12641,"amarÃŃa":12642,"ĠreestructuraciÃ³n":12643,"Ġescaso":12644,"Ġgrue":12645,"abora":12646,"Ġaclara":12647,"ĠFar":12648,"Ġlegado":12649,"Ġpobl":12650,"empo":12651,"xiones":12652,"Ġtransa":12653,"Ġnecesitaba":12654,"Ġnormalmente":12655,"Ġemitir":12656,"Ġsanitarias":12657,"Ġreactiv":12658,"Ġdetectar":12659,"ĠcelebrarÃ¡n":12660,"Ġprosi":12661,"ĠaÃ©rea":12662,"Ġsacrificio":12663,"Ġrepublicanos":12664,"partito":12665,"Ġafronta":12666,"BI":12667,"pr":12668,"sales":12669,"tti":12670,"vinci":12671,"zers":12672,"Ġexa":12673,"Ġ87":12674,"Ġhabitante":12675,"Ġtomaron":12676,"Ġredujo":12677,"Ġescritos":12678,"Ġhermos":12679,"ĠbaÃ±":12680,"Ġmultas":12681,"ĠcatÃ¡logo":12682,"Ġsufriendo":12683,"Ġalicantinos":12684,"ĠdiplomÃ¡tico":12685,"seguida":12686,"Ġrefuerzo":12687,"Ġdesgracia":12688,"59":12689,"Tal":12690,"yu":12691,"Ġplu":12692,"Ġhice":12693,"ĠSolo":12694,"mociÃ³n":12695,"ĠOla":12696,"tral":12697,"genio":12698,"Ġcamar":12699,"Ġopositor":12700,"ĠIngeni":12701,"Ġfila":12702,"ĠcomunicÃ³":12703,"cinas":12704,"how":12705,"ĠLucas":12706,"Ġciclistas":12707,"Ġvinculado":12708,"ĠCampeones":12709,"ĠactÃºa":12710,"Ġvicesecretario":12711,"gno":12712,"ivas":12713,"Ġhaci":12714,"Ġpared":12715,"ĠPGOU":12716,"Ġprohibido":12717,"urÃŃ":12718,"Ġpertin":12719,"ĠRev":12720,"ĠBarberÃ¡":12721,"Ãºmero":12722,"ĠAntoni":12723,"Ġ110":12724,"Ġcelebran":12725,"ĠRivera":12726,"ĠCiudadana":12727,"plicÃ³":12728,"Ġretirado":12729,"Ġlicenci":12730,"ransmi":12731,"Ġflojos":12732,"Ġacontecimiento":12733,"Ġderivados":12734,"ĠBlazers":12735,"comunicaciones":12736,"cab":12737,"posi":12738,"zon":12739,"ĠdepÃ³sitos":12740,"Ã³cesis":12741,"Ġengan":12742,"Ġfri":12743,"Ġesencia":12744,"Ġola":12745,"Ġdespl":12746,"eridi":12747,"Ġobe":12748,"Ġdispuesta":12749,"ettel":12750,"Ġhiper":12751,"zares":12752,"ĠantigÃ¼":12753,"ĠmatrÃŃ":12754,"Ġclaridad":12755,"Ġreflejo":12756,"ĠGijÃ³n":12757,"Ġdesplazamientos":12758,"Ġcelebraciones":12759,"Ġsentimental":12760,"Ġembajada":12761,"ĠBorja":12762,"Ġregula":12763,"Ġmaniobra":12764,"Ġaustraliano":12765,"Ġpaliar":12766,"52":12767,"Bo":12768,"Han":12769,"rma":12770,"vantes":12771,"Ã¡stico":12772,"ĠfÃ©":12773,"Ġrepos":12774,"ĠLlo":12775,"ĠIbex":12776,"Ġtrabajaba":12777,"cretamente":12778,"Ġtomando":12779,"ĠAntena":12780,"ĠSalÃ³n":12781,"Ġclaros":12782,"Ġatacar":12783,"forme":12784,"ĠPascua":12785,"Ġobligada":12786,"Ġpronunciado":12787,"panyol":12788,"ĠEmpresa":12789,"ecreto":12790,"Ġincumplimiento":12791,"ĠcomercializaciÃ³n":12792,"Ġmusulmanes":12793,"ĠInmigraciÃ³n":12794,"eve":12795,"hel":12796,"Ġeti":12797,"onde":12798,"algo":12799,"iner":12800,"Ġhuir":12801,"Ġaline":12802,"Ġgrad":12803,"ĠSard":12804,"Ġmetido":12805,"ĠBau":12806,"Ġcontiene":12807,"Ġtratan":12808,"Ġtenista":12809,"Ġpape":12810,"casi":12811,"Ã³metros":12812,"ĠcorporaciÃ³n":12813,"Ġfalla":12814,"ĠInst":12815,"Ġ69":12816,"ĠconvertirÃ¡":12817,"Ġatendido":12818,"Ġconcreta":12819,"Ġrendir":12820,"Ġdestinadas":12821,"ĠHerrero":12822,"ĠconstituciÃ³n":12823,"Ġdispositivos":12824,"Ġnorteamericana":12825,"Ġenlace":12826,"Ġaplicaciones":12827,"ĠincÃ³gni":12828,"Ġcoyuntura":12829,"ĠidÃ©nt":12830,"ĠprevaricaciÃ³n":12831,"53":12832,"jidad":12833,"ladas":12834,"uciones":12835,"onario":12836,"inario":12837,"amp":12838,"Ġdespro":12839,"Ġperros":12840,"ĠTV":12841,"Ġpresa":12842,"ĠVo":12843,"ĠpasarÃ¡n":12844,"ĠArturo":12845,"ĠCooperaciÃ³n":12846,"Ã¡ticamente":12847,"Ġregion":12848,"Ġacababa":12849,"Ġsolicita":12850,"Ġconsiderable":12851,"Ġviajero":12852,"ARC":12853,"ĠSecund":12854,"quiazul":12855,"ĠSÃ¡hara":12856,"ĠEmbaj":12857,"Ġequivalente":12858,"ĠdemÃ³cratas":12859,"ĠlÃ¡grimas":12860,"Ġmonar":12861,"Ġconsa":12862,"Ġreen":12863,"ĠAni":12864,"ĠRas":12865,"ĠFis":12866,"ĠNor":12867,"ĠReps":12868,"Ġfalso":12869,"Ġchinos":12870,"Ġvivimos":12871,"ĠOrquesta":12872,"Ġsancion":12873,"ĠÃ©pocas":12874,"mÃ¡nt":12875,"Ġagresor":12876,"Ġpreocupado":12877,"Ġarmado":12878,"zcoa":12879,"Ġargumenta":12880,"ĠcomisarÃŃa":12881,"Ġfrases":12882,"ĠprÃ©stamo":12883,"ĠsÃ©ptima":12884,"Tengo":12885,"Ġcomarcas":12886,"pÃºzcoa":12887,"ĠRepsol":12888,"olencia":12889,"Ġbec":12890,"ajara":12891,"ĠResi":12892,"Ġtope":12893,"ĠDin":12894,"uertas":12895,"ĠFu":12896,"Ġexpuso":12897,"Ġmobiliario":12898,"ĠOeste":12899,"etario":12900,"Ġafg":12901,"Ġmundiales":12902,"Ġcorpora":12903,"Ġneu":12904,"Ġcanasta":12905,"Ġapartam":12906,"ĠJaume":12907,"Ġvoluntaria":12908,"ĠAmor":12909,"Ġprobado":12910,"dromo":12911,"arela":12912,"ĠclÃ¡sica":12913,"Ġcumpla":12914,"Ġepisodios":12915,"Ġidioma":12916,"ĠintÃ©rprete":12917,"Ġpenitenci":12918,"900":12919,"Gra":12920,"RPF":12921,"Ġtru":12922,"rate":12923,"tibles":12924,"Ġge":12925,"Ġtraves":12926,"ĠVin":12927,"sabilidad":12928,"ĠvergÃ¼enza":12929,"traciones":12930,"ĠalcaldÃŃa":12931,"Ġdefensor":12932,"Ġinser":12933,"Ġcumpliendo":12934,"Ġvalencianas":12935,"Ġaliados":12936,"Ġblanquiazul":12937,"ĠfÃ¡rma":12938,"ĠcaÃŃdas":12939,"ĠadopciÃ³n":12940,"Ġlevantado":12941,"ĠMasters":12942,"Ġcuidados":12943,"ĠTelevisiÃ³n":12944,"Ġsufrieron":12945,"Ġprofundi":12946,"Ġbrome":12947,"Ġdesembol":12948,"Ġmaquinaria":12949,"ĠFIFA":12950,"ĠsatÃ©li":12951,"ĠcinturÃ³n":12952,"sol":12953,"tambiÃ©n":12954,"Ġquer":12955,"ĠNat":12956,"ĠEsco":12957,"Ġconservar":12958,"Ġhier":12959,"Ġ81":12960,"Ġtransferencia":12961,"Ġdebates":12962,"ĠsueÃ±os":12963,"ĠPower":12964,"Ġpasarela":12965,"ĠCÃ¡ritas":12966,"ĠCalvo":12967,"Ġ1989":12968,"Ġcampan":12969,"ĠTengo":12970,"ĠfarmacÃ©u":12971,"Ġaudiovisual":12972,"ĠAlcoy":12973,"Ġhomicidio":12974,"ĠRodrigo":12975,"Pas":12976,"bÃ³n":12977,"dones":12978,"hone":12979,"rativo":12980,"Ġfla":12981,"viamente":12982,"sivas":12983,"ĠLlosa":12984,"Ġexamin":12985,"Ġsobra":12986,"Ġapres":12987,"Ġrecl":12988,"eterÃŃa":12989,"landia":12990,"Ġrodar":12991,"Ġpresentados":12992,"cÃ³mo":12993,"Ġ84":12994,"ĠXunta":12995,"Ġplane":12996,"Ġrecogen":12997,"Ġprocede":12998,"Ġpensamiento":12999,"orias":13000,"ĠExp":13001,"Ġgoberna":13002,"Ġterrible":13003,"Ġsuspender":13004,"Ġagresiones":13005,"ĠapostÃ³":13006,"Ġcampus":13007,"Ġrepeti":13008,"ĠelÃ©ctricas":13009,"ĠGaspar":13010,"Ġadicionales":13011,"Ġotorga":13012,"Ġpersigue":13013,"ĠQaeda":13014,"ek":13015,"iza":13016,"ÃŃrez":13017,"resa":13018,"ĠCaj":13019,"ĠAbo":13020,"Ġdesay":13021,"rana":13022,"deses":13023,"ĠUCI":13024,"Ġasume":13025,"Ġmargin":13026,"ĠÃºnicas":13027,"Ġconjuntos":13028,"Ġnubes":13029,"Ġazules":13030,"ĠCristÃ³bal":13031,"gaban":13032,"tologÃŃa":13033,"talizaciÃ³n":13034,"ÃŃgenes":13035,"ĠfÃ³rmulas":13036,"lantes":13037,"Ġincapacidad":13038,"Ġdona":13039,"Ġdesar":13040,"Ġvisual":13041,"Ġresumi":13042,"ĠDar":13043,"Ġcontando":13044,"Ġarzo":13045,"Ġoral":13046,"Ġcorona":13047,"Ġ2015":13048,"ĠSantamarÃŃa":13049,"ĠMikel":13050,"Ġcolabora":13051,"Ġdistancias":13052,"ÃŃsimas":13053,"Ġadquisi":13054,"Ġinterpreta":13055,"ĠQuizÃ¡":13056,"ĠsorprendiÃ³":13057,"ĠFiestas":13058,"ĠacadÃ©mico":13059,"Ġexcusa":13060,"Ġdonostiarra":13061,"MW":13062,"NI":13063,"eval":13064,"yentes":13065,"ĠoÃŃr":13066,"ĠLlam":13067,"Ġ130":13068,"ĠJard":13069,"Ġcontentos":13070,"Ġcreemos":13071,"Ġ-Â«":13072,"Ġfall":13073,"Ġpensionistas":13074,"Ġmandos":13075,"Ġ82":13076,"ĠChillida":13077,"ĠWood":13078,"ĠafectarÃ¡":13079,"Ġanunciada":13080,"ĠPrograma":13081,"ensas":13082,"Ġproductivo":13083,"ĠSainz":13084,"Ġmontar":13085,"ÃŃfice":13086,"Ġconceptos":13087,"Ġprostitu":13088,"ĠdueÃ±os":13089,"Ã¡stica":13090,"Ġmaltrato":13091,"Ġpertenecientes":13092,"ĠFabra":13093,"ĠBolivia":13094,"Ġimpresionante":13095,"ij":13096,"jam":13097,"Ġdebilidad":13098,"ĠcÃ³n":13099,"Ġsemb":13100,"siles":13101,"ĠSani":13102,"ĠLara":13103,"ĠGlo":13104,"ĠUP":13105,"Ġabur":13106,"med":13107,"Ġvati":13108,"Ġexistir":13109,"Ġdesequili":13110,"ĠTodas":13111,"Ġrusos":13112,"ĠambiciÃ³n":13113,"Ġguardar":13114,"ĠocupÃ³":13115,"Ġcriticar":13116,"ĠrevelÃ³":13117,"ĠEstudios":13118,"Ġpalentina":13119,"gipto":13120,"ĠOlÃŃmpicos":13121,"01":13122,"bÃŃa":13123,"fia":13124,"igo":13125,"maciÃ³n":13126,"reros":13127,"Ġdepartamentos":13128,"Ġcatas":13129,"ĠPRO":13130,"Ġboli":13131,"ĠGen":13132,"tase":13133,"Ġdecimo":13134,"Ġvalle":13135,"udÃŃ":13136,"ĠlÃŃqui":13137,"ĠMira":13138,"ĠMiami":13139,"Ġnovio":13140,"Ġconocerse":13141,"ĠUrdiales":13142,"ĠAuto":13143,"ĠPerÃº":13144,"ĠalmacÃ©n":13145,"Ġarresto":13146,"Ġensayos":13147,"SerÃ¡":13148,"ĠLlorente":13149,"Ġmagnitud":13150,"Ġoctavo":13151,"AquÃŃ":13152,"fÃŃn":13153,"Ġple":13154,"Ġparadas":13155,"ĠMÃ³nica":13156,"Ġbola":13157,"Ġdesgas":13158,"Ġjer":13159,"inaciones":13160,"Ġcanon":13161,"Ġchal":13162,"Ġesperamos":13163,"Ġcanta":13164,"Ġsiguieron":13165,"ĠFiesta":13166,"ĠprometiÃ³":13167,"Ġarrestado":13168,"Ġdesembar":13169,"donde":13170,"ĠGriÃ±Ã¡n":13171,"Ġsoportar":13172,"89":13173,"ahora":13174,"Â´":13175,"ĠsupresiÃ³n":13176,"Ġinstante":13177,"icago":13178,"ĠVettel":13179,"Ġlleguen":13180,"Ġanfit":13181,"Ġsalva":13182,"Ġganancias":13183,"Ġcables":13184,"ĠBarajas":13185,"lori":13186,"Ġconcretar":13187,"ĠvolverÃ¡n":13188,"Ġexigen":13189,"Ġintegrada":13190,"ĠAgrupaciÃ³n":13191,"Ġultra":13192,"Ġpreferido":13193,"ĠdesafÃŃo":13194,"ĠvÃŃspera":13195,"Ġzar":13196,"Ġeres":13197,"Ġdefici":13198,"oraciÃ³n":13199,"ĠAx":13200,"ĠidÃ³n":13201,"ĠLam":13202,"mizar":13203,"uestos":13204,"sobre":13205,"naval":13206,"Ġcarece":13207,"ĠConcepciÃ³n":13208,"Ġdobles":13209,"Ġneoy":13210,"ĠtardÃ³":13211,"ĠinclusiÃ³n":13212,"Ġtoman":13213,"Ġentrenadores":13214,"Ġamiga":13215,"Ġocupan":13216,"Ġindependientes":13217,"Ã¡ndolo":13218,"Ġprogramado":13219,"Ġcriminal":13220,"Ã³crata":13221,"ĠraÃŃces":13222,"ĠmovilizaciÃ³n":13223,"ĠSporting":13224,"Ġsaharauis":13225,"ĠMagdalena":13226,"ĠSecundaria":13227,"gari":13228,"way":13229,"rante":13230,"Ġferias":13231,"tua":13232,"Ġcuch":13233,"ĠRum":13234,"Ġintera":13235,"Ġpeda":13236,"Ġveint":13237,"Ġsolvent":13238,"Ġnatur":13239,"Ġmandar":13240,"Ġmaneja":13241,"Ġpermisos":13242,"ĠAssange":13243,"Ġguardam":13244,"ĠBahÃŃa":13245,"Ġincorporado":13246,"ĠBiblio":13247,"Ġsatisfac":13248,"Ġrecompen":13249,"Ġsospechoso":13250,"ĠJerez":13251,"ĠUniversitario":13252,"Ġtelevisiones":13253,"Ġespiritu":13254,"ĠpedanÃŃa":13255,"ĠLaboral":13256,"director":13257,"Nunca":13258,"zador":13259,"inda":13260,"dices":13261,"ĠEN":13262,"ĠAÃ©":13263,"ĠAgu":13264,"ĠdrÃ¡":13265,"Ġaceras":13266,"Ġpresta":13267,"ĠEspanyol":13268,"Ġral":13269,"Ġcalado":13270,"Ġgracia":13271,"Ġchina":13272,"Ġbarrera":13273,"Ġdeseos":13274,"Ġsignificado":13275,"Ġpinturas":13276,"ĠprecisiÃ³n":13277,"Ġinformativo":13278,"Ġlargos":13279,"Ġdesigual":13280,"Ġpantal":13281,"ĠarquitectÃ³n":13282,"ĠpronunciÃ³":13283,"Ġvestidos":13284,"Ġdibujos":13285,"Ġasesoramiento":13286,"ĠPlataforma":13287,"Ġenmienda":13288,"Ġpatrulla":13289,"ĠFormaciÃ³n":13290,"ĠbaterÃŃa":13291,"ĠBancaja":13292,"hat":13293,"real":13294,"reÃ±o":13295,"Ã¡us":13296,"Ã¡tr":13297,"ĠCV":13298,"ĠCÃ¡n":13299,"Ġdialo":13300,"Ġdichas":13301,"cionista":13302,"Ġbonos":13303,"ulos":13304,"ĠBueno":13305,"Ġpasados":13306,"isa":13307,"ĠOnt":13308,"Ġradi":13309,"ĠIns":13310,"Ġpropiedades":13311,"Ġriguros":13312,"Ġchub":13313,"penas":13314,"ĠinstÃ³":13315,"Ġbarreras":13316,"ĠManchester":13317,"Ġconcede":13318,"hau":13319,"ĠespecÃŃfico":13320,"ĠProfesional":13321,"Ġventana":13322,"Ġalianza":13323,"Ġresidencial":13324,"2010":13325,"Ġapostado":13326,"ĠasumiÃ³":13327,"Ġcentenario":13328,"ĠDoÃ±a":13329,"ĠGalle":13330,"Ġflota":13331,"Ġescultura":13332,"Ġvolante":13333,"ĠapostillÃ³":13334,"Ġcostumbres":13335,"ave":13336,"hal":13337,"udos":13338,"xe":13339,"ĠpÃ¡r":13340,"Ġcanto":13341,"ĠTre":13342,"ficarse":13343,"Ġpierna":13344,"Ġmaneras":13345,"Ġcancel":13346,"Ġdiferenci":13347,"Ġdirigidos":13348,"Ġregistrar":13349,"Ġconsiderada":13350,"Ġconcretos":13351,"Ġconcretas":13352,"Ġambicioso":13353,"Ġcontraria":13354,"Ġmortal":13355,"Ġsuceder":13356,"Ġsendos":13357,"ĠexclusiÃ³n":13358,"Ġcreatividad":13359,"ĠpersecuciÃ³n":13360,"Ġgratuito":13361,"Ġpreocupante":13362,"ĠNicolas":13363,"Ġfestivo":13364,"ĠTransportes":13365,"ĠMÃ¡rquez":13366,"Preg":13367,"fue":13368,"vern":13369,"Ġpesi":13370,"ĠrevÃ©s":13371,"ĠCay":13372,"Ġdiera":13373,"ĠdirÃŃa":13374,"ĠSta":13375,"ĠLAS":13376,"mith":13377,"ĠTran":13378,"ĠFord":13379,"ĠEscu":13380,"Ġregla":13381,"Ġindicar":13382,"ĠArquitec":13383,"Ġbaraj":13384,"ĠCorre":13385,"Ġautora":13386,"ĠCanadÃ¡":13387,"Ġoperarios":13388,"ĠvinculaciÃ³n":13389,"Ġacreedores":13390,"ĠGerardo":13391,"Ġpadece":13392,"Ġpodamos":13393,"Ġdulce":13394,"Ġestatales":13395,"')":13396,"81":13397,"Ãĳ":13398,"Ġ00":13399,"adona":13400,"reste":13401,"lill":13402,"ĠLÃŃ":13403,"Ġaban":13404,"lamo":13405,"Ġconsigo":13406,"Ġpuestas":13407,"Ġ83":13408,"ĠVientos":13409,"Ġdirectivo":13410,"Ġlocalmente":13411,"Ġoriol":13412,"greb":13413,"ĠanimÃ³":13414,"Ġsuficientemente":13415,"Ġarrestados":13416,"ĠcomenzarÃ¡n":13417,"Ġnegros":13418,"Ġmovilizaciones":13419,"Ġmasculina":13420,"ÃĵN":13421,"ĠabstenciÃ³n":13422,"Ġcardenal":13423,"Ġmultinacional":13424,"Ã±adiÃ³":13425,"fle":13426,"Ġdetuvieron":13427,"Ġaro":13428,"Ġenve":13429,"taÃ±a":13430,"dadores":13431,"Ġprogeni":13432,"Ġcuadri":13433,"Ġviejos":13434,"ĠVas":13435,"vaca":13436,"Ġaprue":13437,"ĠprÃŃncipe":13438,"parte":13439,"grafi":13440,"ĠCompos":13441,"Ġpermitieron":13442,"ĠPaula":13443,"Ġsignos":13444,"ĠMauri":13445,"Ġviajaban":13446,"Ġoperadores":13447,"ĠRespecto":13448,"ĠFacebook":13449,"Ġcristianos":13450,"ĠNuria":13451,"Ġdelincuentes":13452,"Ġjoyas":13453,"Ġgitanos":13454,"ĠconvicciÃ³n":13455,"vinciales":13456,"LE":13457,"bus":13458,"gantes":13459,"dist":13460,"ĠAvi":13461,"olos":13462,"ĠJones":13463,"Ġtratando":13464,"llerÃŃa":13465,"vela":13466,"trar":13467,"Ġintervin":13468,"ĠformÃ³":13469,"Ġdestacaron":13470,"Ġtome":13471,"ĠreclamaciÃ³n":13472,"Ġcaptar":13473,"Ġayudado":13474,"Ġemocion":13475,"Ġconstituyen":13476,"andante":13477,"Ġsospechosos":13478,"Ġauditorio":13479,"Ġtablas":13480,"Ġconexiones":13481,"Ġpresupuestario":13482,"ĠreivindicaciÃ³n":13483,"ĠdiscriminaciÃ³n":13484,"ĠFacultad":13485,"Ne":13486,"fac":13487,"ik":13488,"mus":13489,"ĠdepÃ³sito":13490,"ĠoÃŃdo":13491,"ĠCic":13492,"Ġexcl":13493,"tors":13494,"ĠDecreto":13495,"ĠFMI":13496,"uelve":13497,"ĠmenciÃ³n":13498,"ĠsalÃŃa":13499,"Ġvenga":13500,"Ġ99":13501,"ĠespecÃŃfica":13502,"Ġconveniente":13503,"ĠMerc":13504,"ĠCaballero":13505,"Ġcomponen":13506,"Ġcomunitario":13507,"ĠmodernizaciÃ³n":13508,"Ġaccionistas":13509,"ĠCity":13510,"ĠIberdrola":13511,"Dentro":13512,"donos":13513,"ebre":13514,"ecimiento":13515,"ÃŃso":13516,"ĠvÃ¡li":13517,"Ġregata":13518,"Ġespo":13519,"Ġgadi":13520,"ĠDV":13521,"ĠleÃŃdo":13522,"Ġcompor":13523,"ximo":13524,"Ġlumin":13525,"Ġhilo":13526,"Ġ86":13527,"Ġ88":13528,"ganda":13529,"pulares":13530,"Ġdomingos":13531,"Ġordenanza":13532,"Ġconfiado":13533,"sasuna":13534,"ĠTercera":13535,"Ġcomienzan":13536,"ĠaceptaciÃ³n":13537,"Ġchocola":13538,"Ġganaderos":13539,"Ġdescensos":13540,"Ġbebidas":13541,"Ġbrutal":13542,"jalÃ¡":13543,"Ġpalestino":13544,"Ġtestimonios":13545,"ĠÃŃntegra":13546,"Fe":13547,"Ġenvas":13548,"ĠhachÃŃs":13549,"Ġimi":13550,"ĠTD":13551,"Ġmuseos":13552,"ĠIker":13553,"noc":13554,"Ġintermedi":13555,"Ġconsen":13556,"ĠinformÃ¡tico":13557,"Ġcalzado":13558,"Ġvendedores":13559,"ĠestableciÃ³":13560,"Ġsubieron":13561,"Ġescritores":13562,"ĠdefiniciÃ³n":13563,"Ġobligar":13564,"Ġrechaza":13565,"ĠaceptÃ³":13566,"ĠTrail":13567,"CuÃ¡":13568,"ĠazÃºcar":13569,"Ġidentificado":13570,"ĠBetis":13571,"Ġvirtual":13572,"Ġdesenca":13573,"ĠalertÃ³":13574,"ĠcarbÃ³n":13575,"Ġparalelo":13576,"ĠsimultÃ¡n":13577,"51":13578,"hist":13579,"yente":13580,"amÃ³n":13581,"ĠCala":13582,"ĠAbel":13583,"Ġinco":13584,"pool":13585,"ĠForo":13586,"Ġtendencias":13587,"ĠorÃŃgenes":13588,"ĠdaÃ±":13589,"ĠMancomunidad":13590,"ĠCamacho":13591,"Ġobtenidos":13592,"ĠfÃŃsicas":13593,"ĠBalles":13594,"Ġinconven":13595,"ĠIbÃ¡Ã±ez":13596,"ĠHistÃ³rico":13597,"Ġadolescente":13598,"Ġreceta":13599,"ĠestratÃ©gico":13600,"keting":13601,"ĠbenÃ©":13602,"ĠTerritorio":13603,"ĠtrÃ¡nsito":13604,"02":13605,"ila":13606,"ieron":13607,
[...]
